const unsigned char trained_tflite[] = {
  0x1c, 0x00, 0x00, 0x00, 0x54, 0x46, 0x4c, 0x33, 0x00, 0x00, 0x12, 0x00,
  0x1c, 0x00, 0x04, 0x00, 0x08, 0x00, 0x0c, 0x00, 0x10, 0x00, 0x14, 0x00,
  0x00, 0x00, 0x18, 0x00, 0x12, 0x00, 0x00, 0x00, 0x03, 0x00, 0x00, 0x00,
  0x14, 0x00, 0x00, 0x00, 0x2c, 0x00, 0x00, 0x00, 0x08, 0x01, 0x00, 0x00,
  0x2c, 0x00, 0x00, 0x00, 0xb0, 0x00, 0x00, 0x00, 0x06, 0x00, 0x00, 0x00,
  0xa8, 0x09, 0x00, 0x00, 0x14, 0x09, 0x00, 0x00, 0xec, 0x07, 0x00, 0x00,
  0xb8, 0x06, 0x00, 0x00, 0xa4, 0x02, 0x00, 0x00, 0x2c, 0x02, 0x00, 0x00,
  0x01, 0x00, 0x00, 0x00, 0x00, 0x01, 0x00, 0x00, 0x21, 0x00, 0x00, 0x00,
  0x94, 0x47, 0x00, 0x00, 0x90, 0x47, 0x00, 0x00, 0x68, 0x46, 0x00, 0x00,
  0xd8, 0x45, 0x00, 0x00, 0x6c, 0x45, 0x00, 0x00, 0x04, 0x45, 0x00, 0x00,
  0x10, 0x44, 0x00, 0x00, 0x48, 0x43, 0x00, 0x00, 0x74, 0x24, 0x00, 0x00,
  0xfc, 0x23, 0x00, 0x00, 0x30, 0x0c, 0x00, 0x00, 0xc4, 0x0b, 0x00, 0x00,
  0x5c, 0x0b, 0x00, 0x00, 0xf0, 0x0a, 0x00, 0x00, 0x80, 0x0a, 0x00, 0x00,
  0x18, 0x0a, 0x00, 0x00, 0xa8, 0x09, 0x00, 0x00, 0x50, 0x47, 0x00, 0x00,
  0x4c, 0x47, 0x00, 0x00, 0x48, 0x47, 0x00, 0x00, 0x44, 0x47, 0x00, 0x00,
  0x40, 0x47, 0x00, 0x00, 0x3c, 0x47, 0x00, 0x00, 0x38, 0x47, 0x00, 0x00,
  0x34, 0x47, 0x00, 0x00, 0x30, 0x47, 0x00, 0x00, 0x2c, 0x47, 0x00, 0x00,
  0x28, 0x47, 0x00, 0x00, 0x24, 0x47, 0x00, 0x00, 0x20, 0x47, 0x00, 0x00,
  0x1c, 0x47, 0x00, 0x00, 0x18, 0x47, 0x00, 0x00, 0x38, 0x00, 0x00, 0x00,
  0x01, 0x00, 0x00, 0x00, 0x0c, 0x00, 0x00, 0x00, 0x08, 0x00, 0x0c, 0x00,
  0x04, 0x00, 0x08, 0x00, 0x08, 0x00, 0x00, 0x00, 0x08, 0x00, 0x00, 0x00,
  0x20, 0x00, 0x00, 0x00, 0x13, 0x00, 0x00, 0x00, 0x6d, 0x69, 0x6e, 0x5f,
  0x72, 0x75, 0x6e, 0x74, 0x69, 0x6d, 0x65, 0x5f, 0x76, 0x65, 0x72, 0x73,
  0x69, 0x6f, 0x6e, 0x00, 0x4e, 0xba, 0xff, 0xff, 0x04, 0x00, 0x00, 0x00,
  0x10, 0x00, 0x00, 0x00, 0x31, 0x2e, 0x35, 0x2e, 0x30, 0x00, 0x00, 0x00,
  0x00, 0x00, 0x00, 0x00, 0x00, 0x00, 0x00, 0x00, 0x0f, 0x00, 0x00, 0x00,
  0x4d, 0x4c, 0x49, 0x52, 0x20, 0x43, 0x6f, 0x6e, 0x76, 0x65, 0x72, 0x74,
  0x65, 0x64, 0x2e, 0x00, 0x00, 0x00, 0x0e, 0x00, 0x18, 0x00, 0x04, 0x00,
  0x08, 0x00, 0x0c, 0x00, 0x10, 0x00, 0x14, 0x00, 0x0e, 0x00, 0x00, 0x00,
  0x14, 0x00, 0x00, 0x00, 0x90, 0x00, 0x00, 0x00, 0x94, 0x00, 0x00, 0x00,
  0x98, 0x00, 0x00, 0x00, 0xd4, 0x00, 0x00, 0x00, 0x1f, 0x00, 0x00, 0x00,
  0x44, 0x46, 0x00, 0x00, 0xdc, 0x45, 0x00, 0x00, 0xfc, 0x44, 0x00, 0x00,
  0x80, 0x44, 0x00, 0x00, 0x08, 0x44, 0x00, 0x00, 0xac, 0x43, 0x00, 0x00,
  0xbc, 0x42, 0x00, 0x00, 0xe8, 0x41, 0x00, 0x00, 0x20, 0x23, 0x00, 0x00,
  0x9c, 0x22, 0x00, 0x00, 0xd0, 0x0a, 0x00, 0x00, 0x64, 0x0a, 0x00, 0x00,
  0xfc, 0x09, 0x00, 0x00, 0x8c, 0x09, 0x00, 0x00, 0x20, 0x09, 0x00, 0x00,
  0xb4, 0x08, 0x00, 0x00, 0x3c, 0x08, 0x00, 0x00, 0xa8, 0x07, 0x00, 0x00,
  0xfc, 0x06, 0x00, 0x00, 0x78, 0x06, 0x00, 0x00, 0xbc, 0x05, 0x00, 0x00,
  0x44, 0x05, 0x00, 0x00, 0x90, 0x04, 0x00, 0x00, 0x20, 0x04, 0x00, 0x00,
  0x90, 0x03, 0x00, 0x00, 0x08, 0x03, 0x00, 0x00, 0x78, 0x02, 0x00, 0x00,
  0x00, 0x02, 0x00, 0x00, 0x7c, 0x01, 0x00, 0x00, 0x14, 0x01, 0x00, 0x00,
  0x9c, 0x00, 0x00, 0x00, 0x01, 0x00, 0x00, 0x00, 0x00, 0x00, 0x00, 0x00,
  0x01, 0x00, 0x00, 0x00, 0x1e, 0x00, 0x00, 0x00, 0x0f, 0x00, 0x00, 0x00,
  0xb4, 0x07, 0x00, 0x00, 0x10, 0x07, 0x00, 0x00, 0x8c, 0x06, 0x00, 0x00,
  0xd8, 0x05, 0x00, 0x00, 0x4c, 0x05, 0x00, 0x00, 0x9c, 0x04, 0x00, 0x00,
  0x20, 0x04, 0x00, 0x00, 0x94, 0x03, 0x00, 0x00, 0x20, 0x03, 0x00, 0x00,
  0x84, 0x02, 0x00, 0x00, 0x08, 0x02, 0x00, 0x00, 0x74, 0x01, 0x00, 0x00,
  0x0c, 0x01, 0x00, 0x00, 0x84, 0x00, 0x00, 0x00, 0x10, 0x00, 0x00, 0x00,
  0x04, 0x00, 0x00, 0x00, 0x6d, 0x61, 0x69, 0x6e, 0x00, 0x00, 0x00, 0x00,
  0x42, 0xf9, 0xff, 0xff, 0x00, 0x00, 0x00, 0x09, 0x05, 0x00, 0x00, 0x00,
  0x1c, 0x00, 0x00, 0x00, 0x10, 0x00, 0x00, 0x00, 0x04, 0x00, 0x00, 0x00,
  0x9a, 0xbb, 0xff, 0xff, 0x00, 0x00, 0x80, 0x3f, 0x01, 0x00, 0x00, 0x00,
  0x1e, 0x00, 0x00, 0x00, 0x01, 0x00, 0x00, 0x00, 0x1d, 0x00, 0x00, 0x00,
  0xa2, 0xf8, 0xff, 0xff, 0x00, 0x00, 0x00, 0x19, 0x01, 0x00, 0x00, 0x00,
  0xde, 0xba, 0xff, 0xff, 0x10, 0x00, 0x00, 0x00, 0x1f, 0x00, 0x00, 0x00,
  0x14, 0x00, 0x00, 0x00, 0x20, 0x00, 0x00, 0x00, 0x02, 0x00, 0x00, 0x00,
  0x01, 0x00, 0x00, 0x00, 0x02, 0x00, 0x00, 0x00, 0x08, 0x00, 0x00, 0x00,
  0x49, 0x64, 0x65, 0x6e, 0x74, 0x69, 0x74, 0x79, 0x00, 0x00, 0x00, 0x00,
  0xc8, 0xba, 0xff, 0xff, 0xb2, 0xf9, 0xff, 0xff, 0x00, 0x00, 0x00, 0x08,
  0x04, 0x00, 0x00, 0x00, 0x18, 0x00, 0x00, 0x00, 0x0c, 0x00, 0x00, 0x00,
  0x04, 0x00, 0x00, 0x00, 0xe4, 0xba, 0xff, 0xff, 0x01, 0x00, 0x00, 0x00,
  0x1d, 0x00, 0x00, 0x00, 0x03, 0x00, 0x00, 0x00, 0x1c, 0x00, 0x00, 0x00,
  0x05, 0x00, 0x00, 0x00, 0x04, 0x00, 0x00, 0x00, 0x16, 0xf9, 0xff, 0xff,
  0x00, 0x00, 0x00, 0x09, 0x01, 0x00, 0x00, 0x00, 0x52, 0xbb, 0xff, 0xff,
  0x10, 0x00, 0x00, 0x00, 0x1e, 0x00, 0x00, 0x00, 0x14, 0x00, 0x00, 0x00,
  0x30, 0x00, 0x00, 0x00, 0x02, 0x00, 0x00, 0x00, 0x01, 0x00, 0x00, 0x00,
  0x02, 0x00, 0x00, 0x00, 0x19, 0x00, 0x00, 0x00, 0x73, 0x65, 0x71, 0x75,
  0x65, 0x6e, 0x74, 0x69, 0x61, 0x6c, 0x2f, 0x79, 0x5f, 0x70, 0x72, 0x65,
  0x64, 0x2f, 0x42, 0x69, 0x61, 0x73, 0x41, 0x64, 0x64, 0x00, 0x00, 0x00,
  0x4c, 0xbb, 0xff, 0xff, 0x92, 0xf9, 0xff, 0xff, 0x10, 0x00, 0x00, 0x00,
  0x04, 0x00, 0x00, 0x00, 0x01, 0x00, 0x00, 0x00, 0x1c, 0x00, 0x00, 0x00,
  0x02, 0x00, 0x00, 0x00, 0x1b, 0x00, 0x00, 0x00, 0x03, 0x00, 0x00, 0x00,
  0xb6, 0xbb, 0xff, 0xff, 0x10, 0x00, 0x00, 0x00, 0x1d, 0x00, 0x00, 0x00,
  0x14, 0x00, 0x00, 0x00, 0x30, 0x00, 0x00, 0x00, 0x02, 0x00, 0x00, 0x00,
  0x01, 0x00, 0x00, 0x00, 0x14, 0x00, 0x00, 0x00, 0x1a, 0x00, 0x00, 0x00,
  0x73, 0x65, 0x71, 0x75, 0x65, 0x6e, 0x74, 0x69, 0x61, 0x6c, 0x2f, 0x66,
  0x6c, 0x61, 0x74, 0x74, 0x65, 0x6e, 0x2f, 0x52, 0x65, 0x73, 0x68, 0x61,
  0x70, 0x65, 0x00, 0x00, 0xb0, 0xbb, 0xff, 0xff, 0x9a, 0xfa, 0xff, 0xff,
  0x00, 0x00, 0x00, 0x05, 0x03, 0x00, 0x00, 0x00, 0x28, 0x00, 0x00, 0x00,
  0x1c, 0x00, 0x00, 0x00, 0x04, 0x00, 0x00, 0x00, 0xee, 0xfc, 0xff, 0xff,
  0x05, 0x00, 0x00, 0x00, 0x01, 0x00, 0x00, 0x00, 0x05, 0x00, 0x00, 0x00,
  0x01, 0x00, 0x00, 0x00, 0x01, 0x00, 0x00, 0x00, 0x1b, 0x00, 0x00, 0x00,
  0x01, 0x00, 0x00, 0x00, 0x1a, 0x00, 0x00, 0x00, 0x36, 0xbc, 0xff, 0xff,
  0x10, 0x00, 0x00, 0x00, 0x1c, 0x00, 0x00, 0x00, 0x1c, 0x00, 0x00, 0x00,
  0x40, 0x00, 0x00, 0x00, 0x04, 0x00, 0x00, 0x00, 0x01, 0x00, 0x00, 0x00,
  0x02, 0x00, 0x00, 0x00, 0x01, 0x00, 0x00, 0x00, 0x0a, 0x00, 0x00, 0x00,
  0x22, 0x00, 0x00, 0x00, 0x73, 0x65, 0x71, 0x75, 0x65, 0x6e, 0x74, 0x69,
  0x61, 0x6c, 0x2f, 0x6d, 0x61, 0x78, 0x5f, 0x70, 0x6f, 0x6f, 0x6c, 0x69,
  0x6e, 0x67, 0x31, 0x64, 0x5f, 0x31, 0x2f, 0x4d, 0x61, 0x78, 0x50, 0x6f,
  0x6f, 0x6c, 0x00, 0x00, 0x40, 0xbc, 0xff, 0xff, 0x86, 0xfa, 0xff, 0xff,
  0x10, 0x00, 0x00, 0x00, 0x04, 0x00, 0x00, 0x00, 0x01, 0x00, 0x00, 0x00,
  0x1a, 0x00, 0x00, 0x00, 0x02, 0x00, 0x00, 0x00, 0x19, 0x00, 0x00, 0x00,
  0x0f, 0x00, 0x00, 0x00, 0xaa, 0xbc, 0xff, 0xff, 0x10, 0x00, 0x00, 0x00,
  0x1b, 0x00, 0x00, 0x00, 0x1c, 0x00, 0x00, 0x00, 0x44, 0x00, 0x00, 0x00,
  0x04, 0x00, 0x00, 0x00, 0x01, 0x00, 0x00, 0x00, 0x0a, 0x00, 0x00, 0x00,
  0x01, 0x00, 0x00, 0x00, 0x0a, 0x00, 0x00, 0x00, 0x26, 0x00, 0x00, 0x00,
  0x73, 0x65, 0x71, 0x75, 0x65, 0x6e, 0x74, 0x69, 0x61, 0x6c, 0x2f, 0x6d,
  0x61, 0x78, 0x5f, 0x70, 0x6f, 0x6f, 0x6c, 0x69, 0x6e, 0x67, 0x31, 0x64,
  0x5f, 0x31, 0x2f, 0x45, 0x78, 0x70, 0x61, 0x6e, 0x64, 0x44, 0x69, 0x6d,
  0x73, 0x31, 0x00, 0x00, 0xb8, 0xbc, 0xff, 0xff, 0xa2, 0xfb, 0xff, 0xff,
  0x00, 0x00, 0x00, 0x0b, 0x02, 0x00, 0x00, 0x00, 0x1c, 0x00, 0x00, 0x00,
  0x10, 0x00, 0x00, 0x00, 0x04, 0x00, 0x00, 0x00, 0xc2, 0xfc, 0xff, 0xff,
  0x00, 0x00, 0x00, 0x01, 0x01, 0x00, 0x00, 0x00, 0x19, 0x00, 0x00, 0x00,
  0x02, 0x00, 0x00, 0x00, 0x18, 0x00, 0x00, 0x00, 0x02, 0x00, 0x00, 0x00,
  0x36, 0xbd, 0xff, 0xff, 0x10, 0x00, 0x00, 0x00, 0x1a, 0x00, 0x00, 0x00,
  0x18, 0x00, 0x00, 0x00, 0x50, 0x00, 0x00, 0x00, 0x03, 0x00, 0x00, 0x00,
  0x01, 0x00, 0x00, 0x00, 0x0a, 0x00, 0x00, 0x00, 0x0a, 0x00, 0x00, 0x00,
  0x34, 0x00, 0x00, 0x00, 0x73, 0x65, 0x71, 0x75, 0x65, 0x6e, 0x74, 0x69,
  0x61, 0x6c, 0x2f, 0x63, 0x6f, 0x6e, 0x76, 0x31, 0x64, 0x5f, 0x31, 0x2f,
  0x52, 0x65, 0x6c, 0x75, 0x3b, 0x73, 0x65, 0x71, 0x75, 0x65, 0x6e, 0x74,
  0x69, 0x61, 0x6c, 0x2f, 0x63, 0x6f, 0x6e, 0x76, 0x31, 0x64, 0x5f, 0x31,
  0x2f, 0x42, 0x69, 0x61, 0x73, 0x41, 0x64, 0x64, 0x00, 0x00, 0x00, 0x00,
  0x50, 0xbd, 0xff, 0xff, 0x96, 0xfb, 0xff, 0xff, 0x10, 0x00, 0x00, 0x00,
  0x04, 0x00, 0x00, 0x00, 0x01, 0x00, 0x00, 0x00, 0x18, 0x00, 0x00, 0x00,
  0x02, 0x00, 0x00, 0x00, 0x17, 0x00, 0x00, 0x00, 0x0e, 0x00, 0x00, 0x00,
  0xba, 0xbd, 0xff, 0xff, 0x10, 0x00, 0x00, 0x00, 0x19, 0x00, 0x00, 0x00,
  0x18, 0x00, 0x00, 0x00, 0x3c, 0x00, 0x00, 0x00, 0x03, 0x00, 0x00, 0x00,
  0x01, 0x00, 0x00, 0x00, 0x0a, 0x00, 0x00, 0x00, 0x0a, 0x00, 0x00, 0x00,
  0x23, 0x00, 0x00, 0x00, 0x73, 0x65, 0x71, 0x75, 0x65, 0x6e, 0x74, 0x69,
  0x61, 0x6c, 0x2f, 0x63, 0x6f, 0x6e, 0x76, 0x31, 0x64, 0x5f, 0x31, 0x2f,
  0x63, 0x6f, 0x6e, 0x76, 0x31, 0x64, 0x2f, 0x53, 0x71, 0x75, 0x65, 0x65,
  0x7a, 0x65, 0x31, 0x00, 0xc0, 0xbd, 0xff, 0xff, 0xaa, 0xfc, 0xff, 0xff,
  0x00, 0x00, 0x00, 0x01, 0x01, 0x00, 0x00, 0x00, 0x20, 0x00, 0x00, 0x00,
  0x14, 0x00, 0x00, 0x00, 0x04, 0x00, 0x00, 0x00, 0x1e, 0xfc, 0xff, 0xff,
  0x01, 0x00, 0x00, 0x00, 0x01, 0x00, 0x00, 0x00, 0x01, 0x00, 0x00, 0x00,
  0x17, 0x00, 0x00, 0x00, 0x03, 0x00, 0x00, 0x00, 0x16, 0x00, 0x00, 0x00,
  0x09, 0x00, 0x00, 0x00, 0x08, 0x00, 0x00, 0x00, 0x46, 0xbe, 0xff, 0xff,
  0x10, 0x00, 0x00, 0x00, 0x18, 0x00, 0x00, 0x00, 0x1c, 0x00, 0x00, 0x00,
  0x38, 0x00, 0x00, 0x00, 0x04, 0x00, 0x00, 0x00, 0x01, 0x00, 0x00, 0x00,
  0x01, 0x00, 0x00, 0x00, 0x0a, 0x00, 0x00, 0x00, 0x0a, 0x00, 0x00, 0x00,
  0x1b, 0x00, 0x00, 0x00, 0x73, 0x65, 0x71, 0x75, 0x65, 0x6e, 0x74, 0x69,
  0x61, 0x6c, 0x2f, 0x63, 0x6f, 0x6e, 0x76, 0x31, 0x64, 0x5f, 0x31, 0x2f,
  0x63, 0x6f, 0x6e, 0x76, 0x31, 0x64, 0x32, 0x00, 0x48, 0xbe, 0xff, 0xff,
  0x8e, 0xfc, 0xff, 0xff, 0x10, 0x00, 0x00, 0x00, 0x04, 0x00, 0x00, 0x00,
  0x01, 0x00, 0x00, 0x00, 0x16, 0x00, 0x00, 0x00, 0x02, 0x00, 0x00, 0x00,
  0x15, 0x00, 0x00, 0x00, 0x0d, 0x00, 0x00, 0x00, 0xb2, 0xbe, 0xff, 0xff,
  0x10, 0x00, 0x00, 0x00, 0x17, 0x00, 0x00, 0x00, 0x1c, 0x00, 0x00, 0x00,
  0x44, 0x00, 0x00, 0x00, 0x04, 0x00, 0x00, 0x00, 0x01, 0x00, 0x00, 0x00,
  0x01, 0x00, 0x00, 0x00, 0x0a, 0x00, 0x00, 0x00, 0x1e, 0x00, 0x00, 0x00,
  0x26, 0x00, 0x00, 0x00, 0x73, 0x65, 0x71, 0x75, 0x65, 0x6e, 0x74, 0x69,
  0x61, 0x6c, 0x2f, 0x63, 0x6f, 0x6e, 0x76, 0x31, 0x64, 0x5f, 0x31, 0x2f,
  0x63, 0x6f, 0x6e, 0x76, 0x31, 0x64, 0x2f, 0x45, 0x78, 0x70, 0x61, 0x6e,
  0x64, 0x44, 0x69, 0x6d, 0x73, 0x31, 0x00, 0x00, 0xc0, 0xbe, 0xff, 0xff,
  0xda, 0xfe, 0xff, 0xff, 0x00, 0x00, 0x00, 0x05, 0x03, 0x00, 0x00, 0x00,
  0x38, 0x00, 0x00, 0x00, 0x2c, 0x00, 0x00, 0x00, 0x14, 0x00, 0x00, 0x00,
  0x00, 0x00, 0x0e, 0x00, 0x14, 0x00, 0x00, 0x00, 0x10, 0x00, 0x0c, 0x00,
  0x08, 0x00, 0x04, 0x00, 0x0e, 0x00, 0x00, 0x00, 0x05, 0x00, 0x00, 0x00,
  0x01, 0x00, 0x00, 0x00, 0x05, 0x00, 0x00, 0x00, 0x01, 0x00, 0x00, 0x00,
  0x01, 0x00, 0x00, 0x00, 0x15, 0x00, 0x00, 0x00, 0x01, 0x00, 0x00, 0x00,
  0x14, 0x00, 0x00, 0x00, 0x26, 0xfd, 0xff, 0xff, 0x00, 0x00, 0x00, 0x11,
  0x01, 0x00, 0x00, 0x00, 0x62, 0xbf, 0xff, 0xff, 0x10, 0x00, 0x00, 0x00,
  0x16, 0x00, 0x00, 0x00, 0x1c, 0x00, 0x00, 0x00, 0x40, 0x00, 0x00, 0x00,
  0x04, 0x00, 0x00, 0x00, 0x01, 0x00, 0x00, 0x00, 0x0a, 0x00, 0x00, 0x00,
  0x01, 0x00, 0x00, 0x00, 0x1e, 0x00, 0x00, 0x00, 0x20, 0x00, 0x00, 0x00,
  0x73, 0x65, 0x71, 0x75, 0x65, 0x6e, 0x74, 0x69, 0x61, 0x6c, 0x2f, 0x6d,
  0x61, 0x78, 0x5f, 0x70, 0x6f, 0x6f, 0x6c, 0x69, 0x6e, 0x67, 0x31, 0x64,
  0x2f, 0x4d, 0x61, 0x78, 0x50, 0x6f, 0x6f, 0x6c, 0x00, 0x00, 0x00, 0x00,
  0x6c, 0xbf, 0xff, 0xff, 0xb2, 0xfd, 0xff, 0xff, 0x10, 0x00, 0x00, 0x00,
  0x04, 0x00, 0x00, 0x00, 0x01, 0x00, 0x00, 0x00, 0x14, 0x00, 0x00, 0x00,
  0x02, 0x00, 0x00, 0x00, 0x13, 0x00, 0x00, 0x00, 0x0c, 0x00, 0x00, 0x00,
  0xd6, 0xbf, 0xff, 0xff, 0x10, 0x00, 0x00, 0x00, 0x15, 0x00, 0x00, 0x00,
  0x1c, 0x00, 0x00, 0x00, 0x44, 0x00, 0x00, 0x00, 0x04, 0x00, 0x00, 0x00,
  0x01, 0x00, 0x00, 0x00, 0x31, 0x00, 0x00, 0x00, 0x01, 0x00, 0x00, 0x00,
  0x1e, 0x00, 0x00, 0x00, 0x24, 0x00, 0x00, 0x00, 0x73, 0x65, 0x71, 0x75,
  0x65, 0x6e, 0x74, 0x69, 0x61, 0x6c, 0x2f, 0x6d, 0x61, 0x78, 0x5f, 0x70,
  0x6f, 0x6f, 0x6c, 0x69, 0x6e, 0x67, 0x31, 0x64, 0x2f, 0x45, 0x78, 0x70,
  0x61, 0x6e, 0x64, 0x44, 0x69, 0x6d, 0x73, 0x31, 0x00, 0x00, 0x00, 0x00,
  0x34, 0xc0, 0xff, 0xff, 0x00, 0x00, 0x0e, 0x00, 0x1a, 0x00, 0x08, 0x00,
  0x0c, 0x00, 0x10, 0x00, 0x07, 0x00, 0x14, 0x00, 0x0e, 0x00, 0x00, 0x00,
  0x00, 0x00, 0x00, 0x0b, 0x02, 0x00, 0x00, 0x00, 0x24, 0x00, 0x00, 0x00,
  0x18, 0x00, 0x00, 0x00, 0x0c, 0x00, 0x00, 0x00, 0x00, 0x00, 0x06, 0x00,
  0x08, 0x00, 0x07, 0x00, 0x06, 0x00, 0x00, 0x00, 0x00, 0x00, 0x00, 0x01,
  0x01, 0x00, 0x00, 0x00, 0x13, 0x00, 0x00, 0x00, 0x02, 0x00, 0x00, 0x00,
  0x12, 0x00, 0x00, 0x00, 0x01, 0x00, 0x00, 0x00, 0x00, 0x00, 0x0a, 0x00,
  0x08, 0x00, 0x00, 0x00, 0x00, 0x00, 0x04, 0x00, 0x0a, 0x00, 0x00, 0x00,
  0x01, 0x00, 0x00, 0x00, 0x8e, 0xc0, 0xff, 0xff, 0x10, 0x00, 0x00, 0x00,
  0x14, 0x00, 0x00, 0x00, 0x18, 0x00, 0x00, 0x00, 0x4c, 0x00, 0x00, 0x00,
  0x03, 0x00, 0x00, 0x00, 0x01, 0x00, 0x00, 0x00, 0x31, 0x00, 0x00, 0x00,
  0x1e, 0x00, 0x00, 0x00, 0x30, 0x00, 0x00, 0x00, 0x73, 0x65, 0x71, 0x75,
  0x65, 0x6e, 0x74, 0x69, 0x61, 0x6c, 0x2f, 0x63, 0x6f, 0x6e, 0x76, 0x31,
  0x64, 0x2f, 0x52, 0x65, 0x6c, 0x75, 0x3b, 0x73, 0x65, 0x71, 0x75, 0x65,
  0x6e, 0x74, 0x69, 0x61, 0x6c, 0x2f, 0x63, 0x6f, 0x6e, 0x76, 0x31, 0x64,
  0x2f, 0x42, 0x69, 0x61, 0x73, 0x41, 0x64, 0x64, 0x00, 0x00, 0x00, 0x00,
  0xa4, 0xc0, 0xff, 0xff, 0xea, 0xfe, 0xff, 0xff, 0x10, 0x00, 0x00, 0x00,
  0x04, 0x00, 0x00, 0x00, 0x01, 0x00, 0x00, 0x00, 0x12, 0x00, 0x00, 0x00,
  0x02, 0x00, 0x00, 0x00, 0x11, 0x00, 0x00, 0x00, 0x0b, 0x00, 0x00, 0x00,
  0x0e, 0xc1, 0xff, 0xff, 0x10, 0x00, 0x00, 0x00, 0x13, 0x00, 0x00, 0x00,
  0x18, 0x00, 0x00, 0x00, 0x3c, 0x00, 0x00, 0x00, 0x03, 0x00, 0x00, 0x00,
  0x01, 0x00, 0x00, 0x00, 0x31, 0x00, 0x00, 0x00, 0x1e, 0x00, 0x00, 0x00,
  0x21, 0x00, 0x00, 0x00, 0x73, 0x65, 0x71, 0x75, 0x65, 0x6e, 0x74, 0x69,
  0x61, 0x6c, 0x2f, 0x63, 0x6f, 0x6e, 0x76, 0x31, 0x64, 0x2f, 0x63, 0x6f,
  0x6e, 0x76, 0x31, 0x64, 0x2f, 0x53, 0x71, 0x75, 0x65, 0x65, 0x7a, 0x65,
  0x31, 0x00, 0x00, 0x00, 0x64, 0xc1, 0xff, 0xff, 0x00, 0x00, 0x0e, 0x00,
  0x18, 0x00, 0x08, 0x00, 0x0c, 0x00, 0x10, 0x00, 0x07, 0x00, 0x14, 0x00,
  0x0e, 0x00, 0x00, 0x00, 0x00, 0x00, 0x00, 0x01, 0x01, 0x00, 0x00, 0x00,
  0x20, 0x00, 0x00, 0x00, 0x14, 0x00, 0x00, 0x00, 0x04, 0x00, 0x00, 0x00,
  0x82, 0xff, 0xff, 0xff, 0x01, 0x00, 0x00, 0x00, 0x01, 0x00, 0x00, 0x00,
  0x01, 0x00, 0x00, 0x00, 0x11, 0x00, 0x00, 0x00, 0x03, 0x00, 0x00, 0x00,
  0x10, 0x00, 0x00, 0x00, 0x07, 0x00, 0x00, 0x00, 0x06, 0x00, 0x00, 0x00,
  0x7a, 0xff, 0xff, 0xff, 0x00, 0x00, 0x00, 0x03, 0x01, 0x00, 0x00, 0x00,
  0xb6, 0xc1, 0xff, 0xff, 0x10, 0x00, 0x00, 0x00, 0x12, 0x00, 0x00, 0x00,
  0x1c, 0x00, 0x00, 0x00, 0x38, 0x00, 0x00, 0x00, 0x04, 0x00, 0x00, 0x00,
  0x01, 0x00, 0x00, 0x00, 0x01, 0x00, 0x00, 0x00, 0x31, 0x00, 0x00, 0x00,
  0x1e, 0x00, 0x00, 0x00, 0x19, 0x00, 0x00, 0x00, 0x73, 0x65, 0x71, 0x75,
  0x65, 0x6e, 0x74, 0x69, 0x61, 0x6c, 0x2f, 0x63, 0x6f, 0x6e, 0x76, 0x31,
  0x64, 0x2f, 0x63, 0x6f, 0x6e, 0x76, 0x31, 0x64, 0x32, 0x00, 0x00, 0x00,
  0x08, 0xc2, 0xff, 0xff, 0x00, 0x00, 0x0a, 0x00, 0x0c, 0x00, 0x00, 0x00,
  0x04, 0x00, 0x08, 0x00, 0x0a, 0x00, 0x00, 0x00, 0x10, 0x00, 0x00, 0x00,
  0x04, 0x00, 0x00, 0x00, 0x01, 0x00, 0x00, 0x00, 0x10, 0x00, 0x00, 0x00,
  0x02, 0x00, 0x00, 0x00, 0x00, 0x00, 0x00, 0x00, 0x0a, 0x00, 0x00, 0x00,
  0x00, 0x00, 0x0a, 0x00, 0x0c, 0x00, 0x07, 0x00, 0x00, 0x00, 0x08, 0x00,
  0x0a, 0x00, 0x00, 0x00, 0x00, 0x00, 0x00, 0x16, 0x01, 0x00, 0x00, 0x00,
  0x46, 0xc2, 0xff, 0xff, 0x10, 0x00, 0x00, 0x00, 0x11, 0x00, 0x00, 0x00,
  0x1c, 0x00, 0x00, 0x00, 0x44, 0x00, 0x00, 0x00, 0x04, 0x00, 0x00, 0x00,
  0x01, 0x00, 0x00, 0x00, 0x01, 0x00, 0x00, 0x00, 0x31, 0x00, 0x00, 0x00,
  0x0d, 0x00, 0x00, 0x00, 0x24, 0x00, 0x00, 0x00, 0x73, 0x65, 0x71, 0x75,
  0x65, 0x6e, 0x74, 0x69, 0x61, 0x6c, 0x2f, 0x63, 0x6f, 0x6e, 0x76, 0x31,
  0x64, 0x2f, 0x63, 0x6f, 0x6e, 0x76, 0x31, 0x64, 0x2f, 0x45, 0x78, 0x70,
  0x61, 0x6e, 0x64, 0x44, 0x69, 0x6d, 0x73, 0x31, 0x00, 0x00, 0x00, 0x00,
  0x54, 0xc2, 0xff, 0xff, 0x7e, 0xc3, 0xff, 0xff, 0x04, 0x00, 0x00, 0x00,
  0x10, 0x00, 0x00, 0x00, 0x01, 0x00, 0x00, 0x00, 0x0a, 0x00, 0x00, 0x00,
  0x01, 0x00, 0x00, 0x00, 0x0a, 0x00, 0x00, 0x00, 0x72, 0xc4, 0xff, 0xff,
  0x00, 0x00, 0x00, 0x02, 0x10, 0x00, 0x00, 0x00, 0x10, 0x00, 0x00, 0x00,
  0x10, 0x00, 0x00, 0x00, 0x38, 0x00, 0x00, 0x00, 0x01, 0x00, 0x00, 0x00,
  0x04, 0x00, 0x00, 0x00, 0x25, 0x00, 0x00, 0x00, 0x73, 0x65, 0x71, 0x75,
  0x65, 0x6e, 0x74, 0x69, 0x61, 0x6c, 0x2f, 0x6d, 0x61, 0x78, 0x5f, 0x70,
  0x6f, 0x6f, 0x6c, 0x69, 0x6e, 0x67, 0x31, 0x64, 0x5f, 0x31, 0x2f, 0x45,
  0x78, 0x70, 0x61, 0x6e, 0x64, 0x44, 0x69, 0x6d, 0x73, 0x00, 0x00, 0x00,
  0xc0, 0xc2, 0xff, 0xff, 0xea, 0xc3, 0xff, 0xff, 0x04, 0x00, 0x00, 0x00,
  0x0c, 0x00, 0x00, 0x00, 0x01, 0x00, 0x00, 0x00, 0x0a, 0x00, 0x00, 0x00,
  0x0a, 0x00, 0x00, 0x00, 0xda, 0xc4, 0xff, 0xff, 0x00, 0x00, 0x00, 0x02,
  0x10, 0x00, 0x00, 0x00, 0x0f, 0x00, 0x00, 0x00, 0x10, 0x00, 0x00, 0x00,
  0x34, 0x00, 0x00, 0x00, 0x01, 0x00, 0x00, 0x00, 0x03, 0x00, 0x00, 0x00,
  0x22, 0x00, 0x00, 0x00, 0x73, 0x65, 0x71, 0x75, 0x65, 0x6e, 0x74, 0x69,
  0x61, 0x6c, 0x2f, 0x63, 0x6f, 0x6e, 0x76, 0x31, 0x64, 0x5f, 0x31, 0x2f,
  0x63, 0x6f, 0x6e, 0x76, 0x31, 0x64, 0x2f, 0x53, 0x71, 0x75, 0x65, 0x65,
  0x7a, 0x65, 0x00, 0x00, 0x24, 0xc3, 0xff, 0xff, 0x4e, 0xc4, 0xff, 0xff,
  0x04, 0x00, 0x00, 0x00, 0x10, 0x00, 0x00, 0x00, 0x01, 0x00, 0x00, 0x00,
  0x01, 0x00, 0x00, 0x00, 0x0a, 0x00, 0x00, 0x00, 0x1e, 0x00, 0x00, 0x00,
  0x42, 0xc5, 0xff, 0xff, 0x00, 0x00, 0x00, 0x02, 0x10, 0x00, 0x00, 0x00,
  0x0e, 0x00, 0x00, 0x00, 0x10, 0x00, 0x00, 0x00, 0x38, 0x00, 0x00, 0x00,
  0x01, 0x00, 0x00, 0x00, 0x04, 0x00, 0x00, 0x00, 0x25, 0x00, 0x00, 0x00,
  0x73, 0x65, 0x71, 0x75, 0x65, 0x6e, 0x74, 0x69, 0x61, 0x6c, 0x2f, 0x63,
  0x6f, 0x6e, 0x76, 0x31, 0x64, 0x5f, 0x31, 0x2f, 0x63, 0x6f, 0x6e, 0x76,
  0x31, 0x64, 0x2f, 0x45, 0x78, 0x70, 0x61, 0x6e, 0x64, 0x44, 0x69, 0x6d,
  0x73, 0x00, 0x00, 0x00, 0x90, 0xc3, 0xff, 0xff, 0xba, 0xc4, 0xff, 0xff,
  0x04, 0x00, 0x00, 0x00, 0x10, 0x00, 0x00, 0x00, 0x01, 0x00, 0x00, 0x00,
  0x31, 0x00, 0x00, 0x00, 0x01, 0x00, 0x00, 0x00, 0x1e, 0x00, 0x00, 0x00,
  0xae, 0xc5, 0xff, 0xff, 0x00, 0x00, 0x00, 0x02, 0x10, 0x00, 0x00, 0x00,
  0x0d, 0x00, 0x00, 0x00, 0x10, 0x00, 0x00, 0x00, 0x34, 0x00, 0x00, 0x00,
  0x01, 0x00, 0x00, 0x00, 0x04, 0x00, 0x00, 0x00, 0x23, 0x00, 0x00, 0x00,
  0x73, 0x65, 0x71, 0x75, 0x65, 0x6e, 0x74, 0x69, 0x61, 0x6c, 0x2f, 0x6d,
  0x61, 0x78, 0x5f, 0x70, 0x6f, 0x6f, 0x6c, 0x69, 0x6e, 0x67, 0x31, 0x64,
  0x2f, 0x45, 0x78, 0x70, 0x61, 0x6e, 0x64, 0x44, 0x69, 0x6d, 0x73, 0x00,
  0xf8, 0xc3, 0xff, 0xff, 0x22, 0xc5, 0xff, 0xff, 0x04, 0x00, 0x00, 0x00,
  0x0c, 0x00, 0x00, 0x00, 0x01, 0x00, 0x00, 0x00, 0x31, 0x00, 0x00, 0x00,
  0x1e, 0x00, 0x00, 0x00, 0x12, 0xc6, 0xff, 0xff, 0x00, 0x00, 0x00, 0x02,
  0x10, 0x00, 0x00, 0x00, 0x0c, 0x00, 0x00, 0x00, 0x10, 0x00, 0x00, 0x00,
  0x34, 0x00, 0x00, 0x00, 0x01, 0x00, 0x00, 0x00, 0x03, 0x00, 0x00, 0x00,
  0x20, 0x00, 0x00, 0x00, 0x73, 0x65, 0x71, 0x75, 0x65, 0x6e, 0x74, 0x69,
  0x61, 0x6c, 0x2f, 0x63, 0x6f, 0x6e, 0x76, 0x31, 0x64, 0x2f, 0x63, 0x6f,
  0x6e, 0x76, 0x31, 0x64, 0x2f, 0x53, 0x71, 0x75, 0x65, 0x65, 0x7a, 0x65,
  0x00, 0x00, 0x00, 0x00, 0x5c, 0xc4, 0xff, 0xff, 0x86, 0xc5, 0xff, 0xff,
  0x04, 0x00, 0x00, 0x00, 0x10, 0x00, 0x00, 0x00, 0x01, 0x00, 0x00, 0x00,
  0x01, 0x00, 0x00, 0x00, 0x31, 0x00, 0x00, 0x00, 0x0d, 0x00, 0x00, 0x00,
  0x7a, 0xc6, 0xff, 0xff, 0x00, 0x00, 0x00, 0x02, 0x10, 0x00, 0x00, 0x00,
  0x0b, 0x00, 0x00, 0x00, 0x10, 0x00, 0x00, 0x00, 0x34, 0x00, 0x00, 0x00,
  0x01, 0x00, 0x00, 0x00, 0x04, 0x00, 0x00, 0x00, 0x23, 0x00, 0x00, 0x00,
  0x73, 0x65, 0x71, 0x75, 0x65, 0x6e, 0x74, 0x69, 0x61, 0x6c, 0x2f, 0x63,
  0x6f, 0x6e, 0x76, 0x31, 0x64, 0x2f, 0x63, 0x6f, 0x6e, 0x76, 0x31, 0x64,
  0x2f, 0x45, 0x78, 0x70, 0x61, 0x6e, 0x64, 0x44, 0x69, 0x6d, 0x73, 0x00,
  0xc4, 0xc4, 0xff, 0xff, 0xee, 0xc5, 0xff, 0xff, 0x04, 0x00, 0x00, 0x00,
  0x70, 0x17, 0x00, 0x00, 0xe9, 0x28, 0xc1, 0xbd, 0x51, 0x00, 0xb1, 0xba,
  0xb8, 0x58, 0x4b, 0x3d, 0x61, 0x84, 0xcb, 0x3c, 0x77, 0x21, 0x13, 0x3e,
  0xad, 0x65, 0xc3, 0xbd, 0x9a, 0xb1, 0x4d, 0xbd, 0x5c, 0xc4, 0x09, 0x3d,
  0xdd, 0x6f, 0x0e, 0xbe, 0xd2, 0xc8, 0x1d, 0xbe, 0x41, 0x43, 0x58, 0xbd,
  0xc6, 0x2c, 0xc7, 0xbd, 0xaa, 0x2d, 0x15, 0x3e, 0xa5, 0x0a, 0x15, 0x3e,
  0x70, 0xd8, 0x55, 0xbd, 0xb1, 0x8b, 0x67, 0x3c, 0x9d, 0xc9, 0x08, 0xbe,
  0xd3, 0xad, 0x87, 0x3c, 0xfd, 0xfd, 0x51, 0xbd, 0x17, 0x43, 0xba, 0x3c,
  0xc4, 0x0d, 0xf5, 0x3d, 0x65, 0x26, 0x9e, 0xbd, 0x2f, 0xd8, 0xfb, 0xbd,
  0x7d, 0x46, 0x10, 0xbd, 0x25, 0xfc, 0x86, 0xbd, 0xb2, 0x0b, 0x17, 0xbe,
  0x22, 0xb1, 0x15, 0x3e, 0xac, 0x33, 0xb1, 0xbd, 0x15, 0x2e, 0x09, 0xbe,
  0xe1, 0xf9, 0x90, 0xbd, 0x51, 0x3f, 0xa3, 0xbd, 0x41, 0xbf, 0x7a, 0xbd,
  0x42, 0x00, 0x85, 0x3d, 0x70, 0x30, 0x94, 0xbd, 0xe7, 0xd2, 0x1b, 0x3e,
  0xd0, 0x89, 0x91, 0x3d, 0x4d, 0x34, 0x12, 0x3e, 0xec, 0x7f, 0x8d, 0x3c,
  0x31, 0xbe, 0xda, 0x3d, 0xee, 0xb4, 0x27, 0x3d, 0x05, 0xd7, 0x7b, 0xbd,
  0x69, 0xe7, 0x08, 0x3e, 0xde, 0x18, 0x23, 0xbe, 0xef, 0x28, 0x11, 0x3e,
  0xf5, 0xe2, 0xb3, 0xbd, 0x64, 0x8d, 0xbf, 0x3d, 0x71, 0x79, 0xb5, 0x3d,
  0xec, 0x31, 0xf6, 0x3c, 0x7c, 0xd5, 0xf1, 0xbd, 0xaf, 0x77, 0xbb, 0xbd,
  0x7e, 0xdf, 0x11, 0xbe, 0xf4, 0x15, 0x97, 0x3b, 0x1e, 0xcd, 0x09, 0x3e,
  0xaf, 0x38, 0x7a, 0xbd, 0x3b, 0x98, 0x54, 0xbd, 0x68, 0x43, 0xe2, 0xbd,
  0x1b, 0x3a, 0x74, 0x3c, 0x6b, 0xf8, 0x9c, 0xbb, 0xb1, 0x64, 0x01, 0x3e,
  0x8e, 0xf9, 0xad, 0xbd, 0x50, 0x54, 0xe7, 0x3d, 0x79, 0xee, 0x9b, 0xbd,
  0x05, 0x83, 0x13, 0xbe, 0xbc, 0xb6, 0x19, 0xbe, 0x5d, 0x79, 0x02, 0xbe,
  0x56, 0xc0, 0x3c, 0xbe, 0x53, 0x2b, 0x2d, 0xbe, 0x8c, 0xaa, 0x29, 0x3e,
  0x9f, 0x1a, 0x9c, 0xbd, 0xe5, 0x96, 0x07, 0x3e, 0xc6, 0xc5, 0x3f, 0x3d,
  0xd0, 0xcf, 0x86, 0xbd, 0x03, 0x79, 0xca, 0x3d, 0xce, 0x5f, 0x15, 0xbe,
  0x48, 0xe7, 0x0f, 0xbd, 0x33, 0xf7, 0xcc, 0x3d, 0x1e, 0x71, 0x4e, 0x3c,
  0x7d, 0xec, 0x39, 0xbb, 0x8c, 0x30, 0x88, 0xbd, 0x4c, 0x89, 0x6e, 0x3c,
  0x2f, 0x48, 0x16, 0xbe, 0x99, 0x08, 0x01, 0xbe, 0x96, 0xcb, 0x08, 0x3d,
  0x54, 0x95, 0x14, 0x3e, 0x41, 0x11, 0x32, 0xbe, 0x2e, 0xce, 0x15, 0x3e,
  0x6a, 0x8d, 0x4d, 0x3c, 0xe6, 0xfc, 0x66, 0xbd, 0xdc, 0x63, 0x04, 0x3e,
  0x0d, 0xf6, 0x52, 0x3d, 0xe6, 0xb9, 0x57, 0x3d, 0xab, 0x86, 0xc4, 0x3d,
  0xcd, 0x26, 0xba, 0x3d, 0x5d, 0x46, 0x12, 0xbd, 0x1d, 0xa3, 0x38, 0xbd,
  0x08, 0xf1, 0xa4, 0xbd, 0xbc, 0x05, 0xaa, 0xbc, 0x31, 0x11, 0x17, 0xbe,
  0xc7, 0x86, 0x84, 0xbd, 0x8d, 0x3c, 0x1e, 0xbe, 0xb7, 0xb9, 0x1c, 0xbe,
  0xee, 0xd4, 0xab, 0xbd, 0x56, 0xc8, 0xde, 0xbd, 0xa2, 0x58, 0x42, 0x3d,
  0xc6, 0x8c, 0xcf, 0xba, 0x0e, 0x77, 0x4a, 0x3d, 0xe4, 0xde, 0x2d, 0x3e,
  0xe8, 0x9d, 0x0b, 0x3e, 0x73, 0x09, 0x0c, 0xbd, 0x83, 0xae, 0xf6, 0xbd,
  0x2b, 0xbb, 0xbb, 0xbd, 0x3b, 0x05, 0x44, 0x3d, 0x79, 0x5e, 0x4b, 0x3d,
  0xac, 0xde, 0x04, 0xbe, 0x2c, 0xb6, 0xf6, 0xbd, 0x3e, 0x7a, 0xdd, 0xbd,
  0x0b, 0x41, 0x8d, 0x3d, 0x01, 0x79, 0x26, 0xbe, 0xf1, 0xcf, 0xb2, 0x3c,
  0x67, 0xd4, 0x2d, 0x3e, 0xbc, 0x57, 0xfb, 0x3d, 0xb7, 0x28, 0x8e, 0x3d,
  0xc6, 0x8b, 0x85, 0x3d, 0xe7, 0xac, 0x4c, 0xbd, 0xc6, 0x1e, 0x86, 0x3c,
  0x1b, 0xa7, 0x2b, 0xbe, 0xf0, 0x49, 0x96, 0xbd, 0xc5, 0x63, 0x0b, 0x3e,
  0xf9, 0xf7, 0x99, 0x3d, 0x56, 0x00, 0x2c, 0x3e, 0x62, 0x64, 0xf6, 0x3c,
  0x76, 0x31, 0xfa, 0xbd, 0xe6, 0x50, 0xb7, 0x3d, 0x25, 0x7f, 0xd7, 0x3d,
  0x86, 0x36, 0x23, 0x3d, 0x14, 0x05, 0xcf, 0x3d, 0x5e, 0x2f, 0x01, 0x3e,
  0x2b, 0x9b, 0x99, 0x3d, 0x32, 0xec, 0xfb, 0x3d, 0xd6, 0x6b, 0x17, 0xbe,
  0x12, 0xca, 0x14, 0x3e, 0xe2, 0x44, 0x5d, 0x3d, 0x25, 0xc1, 0x9a, 0xbd,
  0xf3, 0x7c, 0x28, 0xbe, 0x3c, 0x16, 0x8a, 0x3d, 0x88, 0xbb, 0x05, 0x3e,
  0xdc, 0xd7, 0xa9, 0x3d, 0xe9, 0xe4, 0xa7, 0x3c, 0x31, 0xd7, 0xe3, 0xbd,
  0x6d, 0x7a, 0xb6, 0x3d, 0xe4, 0xfd, 0xdc, 0xbd, 0x04, 0x02, 0x9d, 0x3c,
  0x5f, 0x79, 0x8c, 0xbd, 0x97, 0x5d, 0x97, 0x3d, 0xa0, 0xe2, 0x71, 0x3d,
  0xf7, 0x80, 0x3e, 0xbb, 0x8a, 0x00, 0xef, 0x3d, 0x12, 0x83, 0x88, 0xbd,
  0x4a, 0x39, 0x75, 0xbd, 0x65, 0x3f, 0xdd, 0xbd, 0x1a, 0x77, 0xb2, 0x3c,
  0x15, 0x86, 0xe6, 0xbd, 0x72, 0xba, 0xb9, 0xbc, 0x2a, 0x93, 0x37, 0xbd,
  0xc1, 0x0d, 0xeb, 0xbd, 0xb3, 0x48, 0x0d, 0xbe, 0xad, 0xb5, 0x73, 0xbd,
  0x90, 0x5a, 0xf0, 0x3d, 0x6a, 0xf5, 0xba, 0x3d, 0xcf, 0x15, 0x05, 0xbe,
  0x35, 0x0f, 0x8e, 0x3d, 0x02, 0x05, 0x20, 0x3e, 0xf2, 0xcc, 0x79, 0xb9,
  0x27, 0x5f, 0xd0, 0x3d, 0x03, 0xae, 0x01, 0xbd, 0xcd, 0x27, 0x3e, 0x3e,
  0xa7, 0x1c, 0x17, 0xbd, 0xb6, 0xc3, 0x0a, 0x3e, 0x51, 0xa3, 0x71, 0x3b,
  0x2c, 0x5f, 0xb7, 0x3d, 0x97, 0xa5, 0xd7, 0xbd, 0xbe, 0x94, 0xc9, 0x3c,
  0x2c, 0x73, 0xfd, 0x3d, 0xfb, 0x77, 0x13, 0x3e, 0x35, 0x45, 0x97, 0x3b,
  0xb5, 0x32, 0x89, 0x3d, 0xa1, 0xb9, 0x98, 0x3d, 0xdd, 0x0d, 0x94, 0xbd,
  0x24, 0x53, 0x99, 0xbd, 0x0f, 0x06, 0x78, 0x3d, 0xed, 0xfe, 0x21, 0xbe,
  0xe7, 0xc0, 0x16, 0x3d, 0x29, 0x33, 0xa7, 0x3d, 0xa3, 0x5c, 0x06, 0x3d,
  0xe9, 0x3a, 0x27, 0x3e, 0x3d, 0x16, 0x1c, 0x3e, 0x3b, 0x4f, 0x10, 0x3d,
  0x26, 0x0c, 0x09, 0x3e, 0xdb, 0xb2, 0x8e, 0x3c, 0x9f, 0x72, 0x0e, 0x3d,
  0x8d, 0xf8, 0x1e, 0x3e, 0x4f, 0x15, 0x36, 0xbd, 0x3e, 0x33, 0xde, 0x3c,
  0x0f, 0x70, 0x0e, 0x3e, 0x29, 0xbe, 0xbf, 0x3d, 0x24, 0xce, 0x39, 0x3e,
  0x96, 0x3d, 0x00, 0x3c, 0x1c, 0x17, 0x83, 0x3d, 0xe8, 0x66, 0xa0, 0x3d,
  0x0b, 0x0b, 0x6f, 0xbd, 0xda, 0xc5, 0x27, 0x3e, 0xb3, 0x4f, 0x43, 0x3d,
  0x05, 0xe8, 0x65, 0xbd, 0x02, 0xc2, 0x0a, 0xbd, 0xe9, 0x05, 0x8f, 0xbd,
  0x96, 0x5f, 0xb1, 0x3d, 0x3a, 0x76, 0x1b, 0x3e, 0x4e, 0xef, 0xc5, 0xbd,
  0x97, 0x0b, 0x43, 0xbd, 0xc1, 0x0b, 0x60, 0x3d, 0x2d, 0x04, 0xef, 0xbd,
  0xc9, 0x8c, 0x0c, 0x3e, 0x29, 0x55, 0xc8, 0xbd, 0xef, 0xdc, 0x3e, 0x3d,
  0xa1, 0xf7, 0x29, 0x3e, 0xc9, 0x64, 0x0a, 0x3e, 0x48, 0x04, 0xad, 0x3d,
  0x33, 0x91, 0x3e, 0xbe, 0xaf, 0x71, 0x1f, 0x3d, 0xea, 0xbf, 0x1a, 0x3e,
  0xf6, 0x31, 0xff, 0x3d, 0xa2, 0x1b, 0x21, 0xbd, 0x01, 0x60, 0x25, 0x3e,
  0xeb, 0x00, 0x15, 0x3c, 0x9a, 0x87, 0x1d, 0xbd, 0xa5, 0x12, 0x0d, 0x3e,
  0x99, 0x2c, 0x90, 0x3d, 0xc4, 0xba, 0x06, 0xbe, 0x4a, 0x99, 0x95, 0xbd,
  0x6d, 0x06, 0x18, 0xbe, 0x53, 0x61, 0xa5, 0xbc, 0xff, 0x41, 0x12, 0x3e,
  0xea, 0x8e, 0x70, 0xbd, 0x3c, 0xc1, 0xf3, 0x3d, 0x72, 0x3b, 0x9c, 0xbd,
  0x29, 0x0b, 0x08, 0x3e, 0xc9, 0x4f, 0xbc, 0x3b, 0x12, 0x6a, 0x48, 0xbd,
  0x70, 0xe1, 0x06, 0x3e, 0x56, 0xa5, 0x9f, 0x3c, 0x5d, 0x31, 0x80, 0x3d,
  0xe3, 0x64, 0x84, 0xbd, 0x0f, 0x9a, 0x04, 0xbe, 0xbf, 0xab, 0xa5, 0x3d,
  0x9d, 0x36, 0x1d, 0x3d, 0x01, 0x9e, 0xc4, 0x3c, 0x77, 0xa6, 0xcb, 0x3d,
  0x6a, 0x0f, 0xfb, 0xbd, 0x40, 0xdc, 0x1a, 0xbe, 0x16, 0xf7, 0xe3, 0x3b,
  0xbd, 0xd2, 0xdf, 0x3d, 0x03, 0x0a, 0x4e, 0x3c, 0x80, 0x1a, 0x1f, 0x3e,
  0x64, 0xcd, 0xe7, 0x3d, 0xa6, 0x50, 0x18, 0x3b, 0x2b, 0x13, 0x1d, 0x3e,
  0x9b, 0xb0, 0x9b, 0xbc, 0xeb, 0x37, 0x12, 0xbe, 0x2b, 0x28, 0x86, 0xbd,
  0x9b, 0x9d, 0x02, 0x3e, 0x70, 0x04, 0x98, 0xbd, 0x16, 0x32, 0x2a, 0xbe,
  0xe3, 0x60, 0xc8, 0x3d, 0x42, 0xca, 0xdb, 0x3d, 0xc3, 0x11, 0xa9, 0x3d,
  0x4b, 0xa4, 0xdc, 0x3d, 0xe0, 0xcd, 0x4c, 0xbb, 0xa6, 0xc7, 0xad, 0xbd,
  0x24, 0x9e, 0x1c, 0x3e, 0xf6, 0x7b, 0x9f, 0x3d, 0xf1, 0xc9, 0xd9, 0x3d,
  0x9d, 0xbe, 0x81, 0x3d, 0x90, 0x39, 0xa9, 0x3d, 0x64, 0xf4, 0x0e, 0x3e,
  0x84, 0x01, 0x2e, 0xba, 0x11, 0x45, 0x04, 0x3e, 0x08, 0x5b, 0xbc, 0xbd,
  0x78, 0xab, 0x4d, 0xbd, 0xd5, 0x1b, 0x8e, 0x3d, 0x88, 0x11, 0xc3, 0x3d,
  0xce, 0x51, 0x62, 0xbd, 0xea, 0xb0, 0xb1, 0xbd, 0x82, 0x38, 0xfa, 0xbd,
  0xc7, 0xca, 0xa0, 0xbd, 0xd7, 0x36, 0xc3, 0x3d, 0xd8, 0x22, 0x2b, 0x3e,
  0xd8, 0xcd, 0x28, 0x3e, 0xd1, 0xf1, 0x6b, 0xbd, 0x29, 0x39, 0xcf, 0xbd,
  0xb1, 0x9c, 0xf2, 0xbd, 0x0a, 0x72, 0x18, 0xbe, 0x0b, 0x05, 0xf7, 0x3d,
  0xbc, 0xd6, 0x77, 0x3c, 0x40, 0x22, 0xd7, 0xbd, 0x4d, 0x3d, 0xb5, 0x3d,
  0xcc, 0x61, 0x8d, 0x3c, 0xb1, 0x6f, 0xb0, 0x3d, 0xba, 0x60, 0xc2, 0xbd,
  0xb6, 0x4c, 0x06, 0x3e, 0x87, 0xd3, 0xe7, 0x3d, 0x76, 0x82, 0xaa, 0xbd,
  0xd2, 0x53, 0xa8, 0xbd, 0x38, 0x0e, 0x2a, 0x3d, 0xdb, 0x7e, 0x29, 0xbe,
  0x5a, 0x93, 0xfc, 0x3c, 0x34, 0x31, 0x99, 0xbd, 0x83, 0xd6, 0x64, 0xbd,
  0x2a, 0x1b, 0x2a, 0x3e, 0xab, 0xb5, 0x1c, 0xbe, 0x6a, 0xd2, 0x98, 0xbd,
  0x54, 0xe3, 0x22, 0x3e, 0x98, 0x23, 0x03, 0xbe, 0x29, 0xe3, 0xaa, 0xbc,
  0xde, 0x85, 0xe5, 0x3d, 0x68, 0x2f, 0xd6, 0x3d, 0x39, 0xe7, 0x90, 0x3d,
  0x30, 0x1a, 0xcf, 0xbd, 0x96, 0x59, 0xf9, 0xbd, 0xe5, 0xa1, 0xdc, 0xbc,
  0x49, 0xb5, 0x04, 0x3e, 0x5c, 0x4c, 0xa1, 0x3d, 0xc3, 0xab, 0x1c, 0xbe,
  0x8b, 0x59, 0xc4, 0x3a, 0x76, 0x40, 0x16, 0xbd, 0xd0, 0x09, 0xed, 0xbd,
  0x37, 0x36, 0x0a, 0x3e, 0xda, 0xfc, 0x38, 0x3e, 0xd9, 0xb5, 0x05, 0x3e,
  0xd6, 0x4e, 0x90, 0xbc, 0xa2, 0x3f, 0x97, 0xbd, 0x85, 0xa9, 0xee, 0x3d,
  0x29, 0x0f, 0x01, 0x3e, 0x27, 0x9c, 0xb5, 0xbc, 0x2c, 0x67, 0xfb, 0x3d,
  0x16, 0x21, 0xbd, 0x3d, 0x83, 0xd1, 0x09, 0xbe, 0x71, 0x5e, 0xb1, 0x3c,
  0xe4, 0x6c, 0x07, 0xbe, 0x2d, 0x9c, 0x87, 0x3c, 0x35, 0xda, 0x7c, 0xbd,
  0x3e, 0xd8, 0xd6, 0xbd, 0x5f, 0xcb, 0xbb, 0xbb, 0x9f, 0x3a, 0x10, 0x3d,
  0xca, 0x11, 0x60, 0xbd, 0xe1, 0x15, 0x0d, 0x3e, 0x03, 0xfc, 0xdc, 0x3b,
  0x3c, 0xb6, 0x40, 0xbd, 0x29, 0xcf, 0x35, 0xbe, 0xa9, 0x21, 0xfb, 0xbc,
  0xd4, 0x6e, 0xa1, 0xbd, 0x69, 0xaa, 0xe7, 0xbd, 0x36, 0x7e, 0x1a, 0xbe,
  0x10, 0x78, 0xfb, 0x3c, 0x87, 0x38, 0x0a, 0x3e, 0x10, 0x25, 0xb2, 0x3d,
  0x6d, 0xa3, 0x2e, 0x3e, 0x89, 0x86, 0x38, 0x3d, 0x9c, 0x04, 0x30, 0xbe,
  0xb0, 0x33, 0xbc, 0x3d, 0xfd, 0x33, 0x03, 0x3e, 0x1a, 0xdd, 0x0b, 0x3e,
  0x54, 0xaa, 0x9c, 0xbd, 0x3d, 0x91, 0x9e, 0x3d, 0xf0, 0xaf, 0xbb, 0xbd,
  0xca, 0xc9, 0x3e, 0x3d, 0x69, 0x1d, 0x3f, 0x3d, 0xf5, 0x2d, 0x12, 0x3e,
  0x5a, 0xd0, 0xb6, 0x3c, 0x57, 0xec, 0xc2, 0x3d, 0x0b, 0x8c, 0x20, 0xbd,
  0xd5, 0xfc, 0xed, 0x3d, 0xcc, 0xf7, 0x2b, 0x3e, 0x76, 0xe0, 0xbc, 0xbc,
  0xaa, 0x3f, 0xc0, 0x3d, 0xf6, 0xd9, 0xf9, 0x3c, 0x96, 0xdd, 0xfb, 0xbc,
  0xa3, 0xd9, 0xf3, 0xbd, 0xd5, 0x16, 0x8d, 0x3d, 0x0a, 0x16, 0xbf, 0xbc,
  0xe7, 0xcb, 0x23, 0x3e, 0xc3, 0x68, 0xa5, 0x3d, 0xff, 0x96, 0x18, 0x3c,
  0x23, 0x4b, 0xe6, 0xbd, 0xe6, 0xcf, 0x1d, 0xbe, 0xbf, 0x77, 0x27, 0x3e,
  0x60, 0x8f, 0x0e, 0xbe, 0x39, 0xb2, 0x92, 0x3d, 0xf8, 0xa9, 0xdc, 0xbd,
  0x39, 0x54, 0x2a, 0x3e, 0xc6, 0x6f, 0x36, 0xbe, 0x53, 0x39, 0x76, 0xbc,
  0xa6, 0x10, 0xf3, 0x3d, 0xcc, 0x7b, 0x1f, 0x3e, 0xb8, 0xa6, 0x56, 0xbd,
  0x95, 0x8a, 0x25, 0x3e, 0x83, 0xce, 0xa2, 0x3d, 0x01, 0xd5, 0xe6, 0xbd,
  0x72, 0x0b, 0xd1, 0x3c, 0x19, 0x59, 0x04, 0xbe, 0xe6, 0x04, 0x0f, 0x3e,
  0x00, 0xd8, 0xee, 0x3d, 0xcc, 0xdf, 0xee, 0xbd, 0x58, 0x7b, 0x53, 0x3d,
  0x37, 0xc9, 0xf6, 0xbd, 0xeb, 0xf9, 0x03, 0x3e, 0x19, 0xca, 0x0b, 0xbe,
  0x84, 0x46, 0x96, 0x3b, 0x53, 0x68, 0xeb, 0xba, 0x13, 0x0a, 0x3f, 0x3d,
  0x72, 0xfb, 0x6e, 0x3d, 0x24, 0xc8, 0x48, 0xbb, 0xc7, 0x26, 0x47, 0x3d,
  0x15, 0x1f, 0x37, 0x3b, 0x05, 0xb2, 0x27, 0xbd, 0x3c, 0xf9, 0xf7, 0xbc,
  0x57, 0xe8, 0xa4, 0xbc, 0x82, 0x05, 0xb4, 0xbd, 0x55, 0xff, 0xf5, 0x3d,
  0x73, 0x68, 0xa7, 0x3d, 0x76, 0x2c, 0x39, 0x3d, 0x5f, 0xe6, 0xc9, 0xbd,
  0x99, 0x26, 0xd0, 0x3c, 0x7a, 0x9f, 0x48, 0x3c, 0x74, 0x3f, 0xef, 0xbd,
  0x97, 0x1c, 0x2b, 0x3e, 0xc2, 0x21, 0x13, 0x3a, 0xb4, 0x99, 0x5b, 0x3d,
  0x0f, 0x51, 0x13, 0x3e, 0x94, 0xa8, 0x0b, 0x3e, 0xd7, 0x01, 0x86, 0x3d,
  0x85, 0x63, 0x34, 0xbe, 0x52, 0xab, 0x17, 0xbe, 0x0c, 0xd3, 0x86, 0x3d,
  0x86, 0x9f, 0xfe, 0x3d, 0xb8, 0xd6, 0xcb, 0x3d, 0x86, 0xf3, 0x36, 0xbe,
  0xcc, 0x52, 0xfd, 0xbd, 0x0e, 0x71, 0x13, 0xbe, 0x9c, 0xc0, 0xc8, 0x3d,
  0xc0, 0x97, 0xbe, 0xbd, 0x5b, 0x35, 0xeb, 0xbd, 0xe9, 0x86, 0x1e, 0xbd,
  0xce, 0xad, 0xe8, 0xbd, 0x1d, 0xe2, 0x1b, 0xbe, 0xfa, 0x6d, 0x0a, 0xbd,
  0xa3, 0x8a, 0x84, 0x3d, 0xd4, 0xd7, 0xbf, 0x3d, 0xcd, 0xfe, 0xe3, 0x3d,
  0xb6, 0xcf, 0x08, 0x3e, 0x9b, 0xa7, 0x0a, 0xbe, 0xfa, 0x62, 0xe9, 0x3d,
  0x72, 0x7d, 0x47, 0x3d, 0xc2, 0x05, 0xed, 0xbb, 0x5e, 0x7b, 0xe7, 0xbd,
  0x15, 0xde, 0x6e, 0xbd, 0xc5, 0xca, 0x23, 0x3e, 0x4f, 0x2e, 0x20, 0x3d,
  0x67, 0x24, 0x09, 0x3d, 0xe2, 0x3f, 0xd9, 0x3c, 0x0d, 0x0a, 0xdf, 0xbd,
  0x9b, 0xea, 0xad, 0xbd, 0x66, 0x65, 0xfa, 0x3d, 0x2b, 0xf1, 0xe3, 0x3d,
  0xb3, 0xdf, 0x12, 0x3e, 0x42, 0x9f, 0x4a, 0xbc, 0x24, 0x97, 0x04, 0xbe,
  0x17, 0x2c, 0x2b, 0xbe, 0x19, 0x10, 0x10, 0x3e, 0x57, 0x00, 0x43, 0x3d,
  0x33, 0x7f, 0x62, 0x3d, 0x2f, 0x18, 0x7c, 0x3d, 0x12, 0x8b, 0x49, 0x3c,
  0x64, 0x17, 0xa7, 0xbd, 0x8c, 0x7f, 0xc9, 0xbc, 0xd2, 0x54, 0xc0, 0x3c,
  0x2e, 0x9c, 0xec, 0xbd, 0x12, 0xa9, 0x0b, 0x3e, 0xf1, 0x78, 0xc4, 0x3d,
  0xbb, 0xe9, 0x25, 0x3d, 0xeb, 0x4b, 0x03, 0xbe, 0x6a, 0x5d, 0x16, 0xbe,
  0x13, 0x19, 0x2d, 0xbd, 0x1f, 0x8f, 0x07, 0xbe, 0x8b, 0xbc, 0xdc, 0x3d,
  0xaf, 0x06, 0x99, 0x3d, 0xb1, 0x3e, 0x31, 0xbe, 0xec, 0x71, 0xc3, 0xbd,
  0x77, 0xb7, 0x39, 0x3c, 0x72, 0xb3, 0xb2, 0xbc, 0x2c, 0x79, 0x14, 0x3e,
  0x34, 0x25, 0x8f, 0xbd, 0xa2, 0x18, 0xc2, 0xbd, 0x76, 0x9d, 0xd0, 0xbd,
  0x8f, 0xec, 0xc7, 0xbc, 0xe0, 0xef, 0x53, 0x3d, 0x1b, 0x90, 0x19, 0x3c,
  0xe6, 0x89, 0xd1, 0x3c, 0x07, 0x06, 0x2a, 0xbe, 0xac, 0x33, 0x4c, 0x3d,
  0x3c, 0xc9, 0xf1, 0xbc, 0xe0, 0xc7, 0x47, 0x3c, 0x16, 0x53, 0xb6, 0xbd,
  0x5b, 0x26, 0x32, 0x3d, 0x00, 0xbd, 0x40, 0x3b, 0x55, 0x5d, 0x61, 0xbd,
  0x5f, 0x3f, 0x1d, 0x3e, 0xbf, 0x63, 0x29, 0xbe, 0x2f, 0xb0, 0x2c, 0x3e,
  0x86, 0xcd, 0x97, 0xbd, 0x65, 0x14, 0x23, 0x3d, 0x1f, 0x53, 0xcd, 0xbd,
  0x0d, 0x66, 0xad, 0x3d, 0xf9, 0x83, 0x7c, 0xbc, 0x3d, 0x3d, 0x36, 0xbc,
  0x7e, 0xfe, 0x97, 0x3c, 0xd1, 0x88, 0x25, 0x3e, 0xbf, 0x3d, 0x7f, 0x3d,
  0x9d, 0xca, 0xe1, 0xbd, 0xb5, 0x24, 0x07, 0xbe, 0x0f, 0xbc, 0xb3, 0x3c,
  0x4e, 0x82, 0xca, 0x3d, 0x41, 0x9b, 0xca, 0xbc, 0xfa, 0x50, 0x1f, 0x3d,
  0xdc, 0x92, 0x1a, 0xbe, 0x4d, 0x3f, 0xd1, 0x3d, 0xa2, 0x77, 0x19, 0x3e,
  0x31, 0xeb, 0x10, 0xbc, 0x85, 0xf4, 0x60, 0x3d, 0xd9, 0xc7, 0x15, 0xbe,
  0xc0, 0x40, 0xc7, 0xbb, 0x41, 0x5e, 0x02, 0xbe, 0xd5, 0x4e, 0xd2, 0x3d,
  0x8c, 0x29, 0x8d, 0xbc, 0x26, 0x2b, 0x80, 0x3c, 0x16, 0xa9, 0x1c, 0x3e,
  0x39, 0xec, 0x00, 0xbe, 0xac, 0x17, 0xe1, 0xbd, 0x20, 0x6c, 0x13, 0x3e,
  0xd4, 0x4f, 0xa2, 0xbd, 0x3e, 0xdd, 0xed, 0xbd, 0x37, 0x3e, 0xf3, 0xbd,
  0x30, 0x55, 0xc0, 0xbc, 0x44, 0x3d, 0x92, 0xbd, 0x6f, 0xe7, 0x02, 0x3e,
  0xe1, 0x1f, 0x77, 0x3d, 0xf6, 0xda, 0xc6, 0x3c, 0x49, 0x31, 0x2e, 0x3e,
  0x45, 0x8d, 0x88, 0x3d, 0x31, 0xd0, 0xa5, 0x3d, 0xf8, 0xb3, 0x32, 0x3d,
  0x18, 0xd9, 0x47, 0xbd, 0xe9, 0xad, 0x87, 0x3d, 0x4a, 0xbd, 0xfd, 0x3d,
  0x13, 0x93, 0x2d, 0xbd, 0x71, 0xc9, 0x4c, 0x3d, 0xf1, 0x0c, 0x12, 0xbd,
  0x3b, 0xd5, 0xdc, 0x3d, 0x01, 0xd1, 0xd7, 0xbd, 0x3b, 0xfb, 0x2c, 0xbe,
  0x77, 0xe8, 0xaa, 0x3d, 0x6d, 0x41, 0x26, 0x3e, 0xce, 0x62, 0x19, 0x3e,
  0x47, 0xf5, 0x87, 0xbd, 0x74, 0xec, 0x03, 0x3e, 0x42, 0xd0, 0x97, 0xbd,
  0xb1, 0x8b, 0x05, 0xbe, 0x78, 0x05, 0x8b, 0xbd, 0xd4, 0x43, 0x17, 0xbe,
  0xad, 0x81, 0xb9, 0xbd, 0xe4, 0x2d, 0x0e, 0xbe, 0x00, 0x8d, 0x0d, 0xbd,
  0x57, 0xed, 0x27, 0xbe, 0xed, 0x2e, 0xbe, 0x3d, 0x1c, 0xe7, 0x2e, 0x3e,
  0x1f, 0x26, 0x6a, 0x3d, 0x5b, 0xac, 0xee, 0x3d, 0x4d, 0x8c, 0x07, 0x3e,
  0x81, 0x02, 0x25, 0xbe, 0x4d, 0xa4, 0xf9, 0xbd, 0xec, 0x1a, 0x01, 0x3e,
  0x49, 0x53, 0xea, 0xbc, 0x26, 0x4d, 0x16, 0xbc, 0x7b, 0x9f, 0x2a, 0x3e,
  0x23, 0x10, 0xff, 0x3d, 0x50, 0x43, 0x3a, 0x3c, 0xe4, 0xce, 0x91, 0x3d,
  0x9a, 0x7d, 0x32, 0x3d, 0xfb, 0xb2, 0x18, 0xbe, 0x34, 0x7e, 0x06, 0x3d,
  0x20, 0x8e, 0xcb, 0x3d, 0x9a, 0x1c, 0xfc, 0x3c, 0x64, 0x0d, 0xbc, 0x3c,
  0xfb, 0xd3, 0x8e, 0xbd, 0xd7, 0x82, 0x03, 0xbe, 0x3b, 0xc1, 0x34, 0xbe,
  0x77, 0xa9, 0x14, 0x3e, 0x33, 0x00, 0x98, 0xbd, 0xbc, 0x01, 0xe2, 0xbb,
  0x04, 0x93, 0xe9, 0xbd, 0xed, 0xcc, 0x20, 0x3e, 0xbb, 0x69, 0x4d, 0x3b,
  0xd2, 0x76, 0x3e, 0xbe, 0x16, 0x12, 0x16, 0xbe, 0xfa, 0x6e, 0x3e, 0x3d,
  0xfc, 0x55, 0x35, 0xbd, 0xd9, 0x82, 0x1c, 0x3d, 0xea, 0xe1, 0x54, 0x3d,
  0xbf, 0xc2, 0x2f, 0xbe, 0x03, 0xba, 0x18, 0x3e, 0xfa, 0x49, 0x84, 0x3d,
  0x06, 0x82, 0xf4, 0x3d, 0xe1, 0x64, 0x25, 0x3e, 0x95, 0x3f, 0x88, 0x3d,
  0x1d, 0x25, 0x0d, 0x3e, 0xdb, 0xf3, 0x30, 0x3e, 0x0e, 0x52, 0xa8, 0xbd,
  0x43, 0xac, 0xa3, 0x3c, 0xa0, 0xd3, 0x04, 0xbe, 0x97, 0x2b, 0xab, 0x3d,
  0xa6, 0xd0, 0x49, 0xbc, 0x0f, 0xfb, 0x03, 0x3e, 0x7b, 0xfe, 0x24, 0xbe,
  0xfa, 0xfe, 0x9d, 0xbd, 0x6e, 0xc5, 0x1a, 0xbc, 0x11, 0x19, 0xef, 0xbd,
  0xc5, 0x2c, 0x5b, 0x3d, 0xaf, 0xaa, 0x3a, 0xbc, 0x3b, 0x54, 0xd1, 0xbc,
  0x94, 0xae, 0x0f, 0x3e, 0x0e, 0x57, 0xc8, 0x3d, 0xfd, 0x9a, 0x66, 0x3d,
  0x82, 0xec, 0x6d, 0xbc, 0x94, 0x85, 0xbd, 0xbd, 0xef, 0x4c, 0x2b, 0x3e,
  0xd3, 0x1b, 0x83, 0x3d, 0x1f, 0x02, 0x21, 0xbe, 0x50, 0x14, 0x70, 0xbd,
  0x84, 0x0f, 0xb1, 0xbd, 0xb7, 0xa6, 0x2d, 0xbe, 0xd8, 0x4c, 0xce, 0x3d,
  0x51, 0x26, 0xe4, 0x3d, 0x16, 0x94, 0xc8, 0x3d, 0xfc, 0x42, 0xbe, 0x3d,
  0x14, 0x6a, 0x31, 0xbd, 0xe5, 0x05, 0x28, 0x3e, 0xdf, 0xe2, 0xa8, 0xbd,
  0xb7, 0xc4, 0xe3, 0xbd, 0x29, 0xf3, 0x46, 0xbd, 0x59, 0xa6, 0xfe, 0x3d,
  0xd8, 0x50, 0xbd, 0xbd, 0x87, 0xfc, 0x82, 0x3d, 0x3d, 0xc8, 0x15, 0x3e,
  0x5c, 0xec, 0x18, 0xbe, 0x4b, 0xd5, 0xd8, 0xbb, 0x6e, 0x38, 0x59, 0xbd,
  0x86, 0xd8, 0xa9, 0x3d, 0xbb, 0x6d, 0xde, 0x3d, 0x66, 0xdd, 0xf5, 0x3d,
  0xa2, 0x27, 0x33, 0xbe, 0x6e, 0x14, 0x6f, 0xbc, 0x55, 0xc3, 0x0f, 0x3e,
  0xe3, 0x7f, 0x36, 0x3d, 0x93, 0xa3, 0xf8, 0xbc, 0xbf, 0x27, 0x38, 0xbe,
  0x5f, 0xbf, 0xba, 0x3d, 0xc8, 0x8a, 0xfc, 0x3d, 0x5a, 0xc6, 0xe6, 0x3d,
  0x71, 0xe7, 0xb7, 0xbc, 0x4f, 0x4f, 0x36, 0xbb, 0xe4, 0x84, 0xa7, 0xbd,
  0xa7, 0x27, 0x41, 0x3d, 0x55, 0x0f, 0xeb, 0xbc, 0x66, 0x2e, 0x21, 0x3e,
  0x0d, 0x44, 0x84, 0x3d, 0x4f, 0x9a, 0x18, 0xbb, 0x46, 0x96, 0x0f, 0x3e,
  0xb8, 0x1e, 0x27, 0x3d, 0xe4, 0xaf, 0xa1, 0x3c, 0x6d, 0xe8, 0x7c, 0x3c,
  0x00, 0x0a, 0xc6, 0x3d, 0x7b, 0x56, 0x8f, 0xbd, 0x6d, 0x7e, 0xa9, 0x3b,
  0xc0, 0xd8, 0xd0, 0xbd, 0x88, 0xc8, 0xfa, 0xbd, 0x80, 0x48, 0x79, 0xbc,
  0x4b, 0x76, 0xd7, 0x3b, 0x46, 0x17, 0x0e, 0xbe, 0x57, 0x9f, 0xc5, 0x3d,
  0xdc, 0x71, 0x0d, 0xbe, 0x0a, 0x0c, 0xe0, 0xbc, 0x96, 0x53, 0xcd, 0xbd,
  0x1f, 0x62, 0x2f, 0x3d, 0x3c, 0xae, 0x25, 0xbe, 0xff, 0x71, 0x5c, 0x3d,
  0x74, 0x5f, 0xe7, 0x3d, 0x59, 0x67, 0x98, 0x3c, 0xb7, 0x64, 0xfc, 0xbd,
  0xf1, 0xc1, 0xb1, 0xbd, 0x9c, 0x28, 0xae, 0x3d, 0xdb, 0x28, 0xd4, 0x3d,
  0xcd, 0xab, 0x81, 0x3d, 0x12, 0xb7, 0x19, 0xbe, 0x59, 0xdd, 0x44, 0xbd,
  0xb5, 0xbc, 0x05, 0x3c, 0x6a, 0x17, 0x84, 0xbd, 0xaa, 0x0f, 0x9a, 0xbd,
  0x27, 0xf0, 0x23, 0x3e, 0x7c, 0x71, 0xf4, 0x3d, 0x25, 0xa1, 0xf4, 0x3d,
  0xdc, 0x9a, 0x9c, 0x3d, 0xa4, 0xe9, 0xf6, 0xbd, 0x39, 0x64, 0xb8, 0x3d,
  0x1f, 0x66, 0xf1, 0xbd, 0xdd, 0x8f, 0xab, 0x3d, 0x0f, 0xa1, 0x7a, 0x3d,
  0xb5, 0x21, 0xd0, 0x3b, 0x21, 0xba, 0xac, 0x3d, 0x17, 0x1d, 0x23, 0xbc,
  0x9f, 0xfc, 0x34, 0xbd, 0xe3, 0x2f, 0xf3, 0x3d, 0x52, 0xb5, 0xb4, 0xbd,
  0xce, 0xd2, 0x85, 0xbc, 0x95, 0x64, 0x68, 0xbd, 0x26, 0x7f, 0xe5, 0xbd,
  0xeb, 0x23, 0x0e, 0x3d, 0x6e, 0x2a, 0x59, 0x3d, 0xa5, 0xfe, 0x6b, 0xbb,
  0x7f, 0x3b, 0x35, 0x3d, 0x05, 0xb4, 0x87, 0x3d, 0xef, 0x7b, 0x1d, 0xbe,
  0xe8, 0x76, 0x15, 0xbe, 0x4a, 0x88, 0x4c, 0xbd, 0x83, 0xfe, 0x0a, 0xbe,
  0x5c, 0xb0, 0x53, 0xbd, 0x9e, 0x46, 0xfe, 0x3d, 0xbc, 0x9f, 0x6a, 0x3d,
  0x0e, 0x25, 0x35, 0xbd, 0x5e, 0x04, 0x8e, 0x3d, 0x5d, 0xae, 0x29, 0xbd,
  0xce, 0xe2, 0x14, 0xbe, 0xe7, 0xe8, 0xee, 0x3d, 0x41, 0x33, 0x18, 0x3e,
  0x0d, 0x26, 0xe6, 0xbd, 0x7f, 0xf2, 0x99, 0x3c, 0x47, 0x6e, 0xe7, 0xbd,
  0xd7, 0xe8, 0xf5, 0xbc, 0xd8, 0x9c, 0x83, 0x3c, 0x91, 0x71, 0xdb, 0xbc,
  0x0b, 0x62, 0x12, 0x3e, 0xb1, 0x6c, 0x14, 0xbe, 0x89, 0xfb, 0x26, 0xbe,
  0x2b, 0x33, 0x21, 0x3e, 0xd6, 0x81, 0xe3, 0xbd, 0xb3, 0x7f, 0x90, 0x3d,
  0x5b, 0xb5, 0xa8, 0xbd, 0x21, 0x52, 0x17, 0x3e, 0xbd, 0xa6, 0xf5, 0xbd,
  0x61, 0x08, 0x2f, 0xbc, 0xd6, 0x3e, 0x0a, 0xbe, 0x45, 0xee, 0x0f, 0x3e,
  0xe4, 0x73, 0xf8, 0x3d, 0x8e, 0xde, 0xc2, 0x3d, 0x28, 0x51, 0x88, 0xbc,
  0x24, 0xea, 0x64, 0x3c, 0x5b, 0x25, 0xb3, 0xbd, 0x49, 0x46, 0x4f, 0x3c,
  0x59, 0x98, 0xf2, 0xbd, 0x4e, 0x94, 0x15, 0xbe, 0xe9, 0xb7, 0x0d, 0xbe,
  0xf9, 0x20, 0xca, 0xbd, 0x01, 0x09, 0x1e, 0x3e, 0xc2, 0x64, 0x01, 0x3e,
  0x2d, 0x4f, 0xe7, 0x3d, 0xcb, 0x76, 0x78, 0xbd, 0x75, 0x3e, 0x22, 0xbd,
  0xaa, 0x90, 0xdc, 0x3d, 0x5c, 0x2e, 0xce, 0x3d, 0x4a, 0x01, 0xf9, 0x3d,
  0xe2, 0xda, 0x20, 0x3e, 0xc9, 0x47, 0x3b, 0xbd, 0x87, 0x02, 0xd0, 0x3d,
  0xff, 0x0a, 0xc5, 0x3c, 0x7c, 0xe5, 0x97, 0x3d, 0x78, 0xc0, 0x12, 0x3e,
  0xcf, 0xeb, 0x88, 0xbc, 0xeb, 0xe4, 0x06, 0x3e, 0xb6, 0xb4, 0x9e, 0x3d,
  0x63, 0xce, 0xed, 0x3d, 0x80, 0x1f, 0x04, 0xbd, 0xc4, 0x3d, 0xf0, 0x3c,
  0xd0, 0x8e, 0xc0, 0xbd, 0xbd, 0x84, 0x0b, 0x3c, 0x22, 0x6f, 0xaa, 0xbd,
  0xe1, 0x00, 0xb8, 0x3d, 0x96, 0x1f, 0x38, 0x3e, 0x93, 0xc0, 0x1a, 0x3e,
  0x6c, 0x82, 0x9b, 0xbd, 0x01, 0xef, 0xaf, 0xbd, 0x33, 0x5c, 0x62, 0xbd,
  0xb9, 0x72, 0x6b, 0xbc, 0x56, 0xec, 0x04, 0x3e, 0xa8, 0x0a, 0x8d, 0x3c,
  0x31, 0xc2, 0xe4, 0xbd, 0x1e, 0xbc, 0x1a, 0xbe, 0xee, 0x7e, 0xd3, 0xbd,
  0x83, 0xb6, 0x0f, 0x3d, 0x47, 0x0b, 0x5b, 0xbd, 0xcc, 0xf6, 0x8e, 0xbd,
  0x77, 0x83, 0x13, 0x3d, 0x97, 0x21, 0x16, 0x3e, 0x7a, 0xd6, 0xc2, 0xbc,
  0x40, 0x7e, 0xc9, 0xbb, 0x14, 0x00, 0xa7, 0x3c, 0xe3, 0xe3, 0x0d, 0x3e,
  0xa5, 0xc6, 0x3d, 0xbe, 0xec, 0x2f, 0x08, 0x3d, 0x24, 0xd3, 0xbe, 0x3c,
  0x8c, 0x4c, 0xc8, 0x3d, 0x1a, 0xd5, 0x1f, 0xbd, 0x99, 0xe1, 0x37, 0xbe,
  0x28, 0x9e, 0x2f, 0x3d, 0x4c, 0x1f, 0x50, 0xbb, 0x82, 0x9f, 0xcc, 0xbc,
  0xda, 0x8e, 0x0e, 0xbe, 0x06, 0xda, 0x36, 0xbd, 0x4a, 0x48, 0x15, 0xbe,
  0xbf, 0x28, 0xdc, 0xbd, 0x61, 0x45, 0x8e, 0x3c, 0x86, 0x2c, 0x29, 0xba,
  0x62, 0x17, 0x6f, 0x3d, 0xb2, 0x11, 0x08, 0xbe, 0x29, 0x52, 0xc8, 0x3d,
  0x25, 0x72, 0x8a, 0xbd, 0x86, 0x91, 0x2f, 0xbd, 0x04, 0x45, 0x3e, 0xbd,
  0x13, 0xdd, 0xce, 0x3b, 0x57, 0xe6, 0xee, 0x3d, 0xc6, 0xbf, 0x82, 0x3d,
  0x64, 0xc4, 0x97, 0xbd, 0xd9, 0xc8, 0x13, 0x3e, 0x03, 0xbc, 0xfc, 0x3d,
  0x02, 0xec, 0x1a, 0xbd, 0xd5, 0x94, 0xda, 0xbd, 0xcb, 0xcc, 0x13, 0xbe,
  0x11, 0x4b, 0x78, 0xbc, 0x82, 0xa9, 0x6f, 0xbd, 0x18, 0x3e, 0x31, 0xbe,
  0x48, 0x0c, 0x24, 0xbe, 0x59, 0x86, 0x39, 0xbd, 0x7b, 0xa6, 0xd0, 0xbc,
  0xef, 0x81, 0x8f, 0xbd, 0xe8, 0x13, 0xdc, 0xbb, 0x88, 0x32, 0xf6, 0x3d,
  0x15, 0xe9, 0x04, 0x3e, 0x0f, 0x1a, 0xba, 0xbd, 0x71, 0x34, 0x68, 0x3d,
  0xcc, 0xbd, 0xcf, 0xbd, 0x4d, 0x50, 0xf2, 0xbd, 0x04, 0x22, 0x9d, 0x3d,
  0xc0, 0x86, 0x52, 0xbd, 0x6a, 0x86, 0x91, 0xbd, 0xdf, 0xff, 0xcb, 0x3c,
  0x46, 0xd3, 0xb1, 0xbd, 0xc4, 0x88, 0xec, 0xbd, 0x47, 0x84, 0x8b, 0x3c,
  0xdf, 0x20, 0x21, 0x3d, 0xd3, 0x49, 0x5e, 0xbc, 0xb9, 0xd6, 0x9e, 0x3c,
  0xbb, 0x9a, 0x30, 0xbd, 0x43, 0x22, 0x38, 0xbe, 0x51, 0x74, 0x2c, 0x3e,
  0x15, 0xc9, 0x1e, 0x3e, 0x21, 0x38, 0xd2, 0xbd, 0x9d, 0xe6, 0xc3, 0xbd,
  0x87, 0xe1, 0xca, 0x3d, 0x0c, 0x5a, 0xc9, 0xbc, 0xd1, 0x63, 0x27, 0xbe,
  0x74, 0x63, 0x50, 0x3d, 0xf0, 0x7f, 0x71, 0x3d, 0x34, 0xbd, 0xe6, 0xbd,
  0x45, 0xd6, 0x84, 0x3c, 0xe8, 0xf0, 0x70, 0x3d, 0x00, 0xef, 0x24, 0x3d,
  0x8a, 0x4e, 0x2d, 0x3e, 0x1c, 0xdb, 0x8a, 0xbc, 0xfd, 0x92, 0xae, 0xbd,
  0x8c, 0x91, 0xfe, 0x3d, 0x15, 0xc8, 0xcc, 0x3d, 0x55, 0x63, 0x91, 0x3d,
  0x27, 0x33, 0x1a, 0xbe, 0x5c, 0xd3, 0x18, 0x3e, 0xc1, 0xb0, 0x69, 0xbd,
  0x08, 0x76, 0x5f, 0x3c, 0xc9, 0x0e, 0x08, 0x3e, 0x5c, 0x2d, 0xe5, 0x3d,
  0xbe, 0xa3, 0x78, 0xbd, 0x48, 0x57, 0x7d, 0x3c, 0x30, 0x45, 0x9c, 0x3d,
  0xf1, 0x6c, 0x92, 0x3d, 0x67, 0x48, 0x0c, 0x3e, 0x1e, 0xe3, 0xb5, 0xbd,
  0x97, 0xe9, 0xa6, 0x3d, 0x93, 0x8a, 0x32, 0xbe, 0xe0, 0xa7, 0x41, 0x3b,
  0x48, 0x9a, 0x39, 0x3b, 0x93, 0x19, 0xbe, 0xbb, 0xbd, 0xa1, 0xa2, 0x3d,
  0xc5, 0x58, 0x3f, 0xbd, 0x4d, 0xd7, 0x74, 0x3d, 0x88, 0xe1, 0xa0, 0xbd,
  0x0b, 0xa9, 0x0c, 0x3e, 0x92, 0x20, 0x65, 0x3d, 0x0b, 0x30, 0xe7, 0xbd,
  0x0b, 0x4e, 0xe3, 0x3d, 0x1f, 0xda, 0x3a, 0xbe, 0x2d, 0x7f, 0xc3, 0x3d,
  0xa0, 0xf7, 0x85, 0x3b, 0x0d, 0xd5, 0x14, 0xbe, 0x3e, 0x4b, 0x05, 0x3e,
  0x7c, 0xf3, 0xac, 0x3d, 0x07, 0xbb, 0xfb, 0xbd, 0x7f, 0x2c, 0xcc, 0xbd,
  0xf8, 0x2d, 0xc9, 0x3d, 0x8f, 0x42, 0x15, 0x3e, 0x9b, 0xfb, 0x25, 0xbd,
  0x18, 0xb5, 0xe7, 0xbd, 0xb6, 0xd7, 0x80, 0x3c, 0xc8, 0x75, 0x81, 0x3d,
  0x76, 0xe9, 0xd5, 0x3d, 0xef, 0x34, 0x0f, 0xbe, 0x86, 0x95, 0xb8, 0x3c,
  0x70, 0x34, 0xdd, 0xbd, 0xfc, 0x7a, 0xd5, 0x3d, 0x8c, 0x30, 0xc7, 0x3b,
  0xfe, 0x74, 0xa6, 0xbd, 0x38, 0x70, 0xb9, 0x3d, 0xa3, 0x96, 0x21, 0x3e,
  0xd1, 0x9c, 0x11, 0x3e, 0xa6, 0x78, 0xf6, 0x3c, 0x42, 0xf6, 0x01, 0x3e,
  0x62, 0xf1, 0x59, 0x3d, 0x3d, 0x66, 0xea, 0xbd, 0x40, 0x01, 0x05, 0xbe,
  0x64, 0xbc, 0x99, 0xbd, 0x76, 0x4a, 0xe6, 0xbd, 0x94, 0x4e, 0xb8, 0x3d,
  0x3d, 0x16, 0xa5, 0x3d, 0x3d, 0xbf, 0x99, 0xbd, 0x43, 0x89, 0xa6, 0xbc,
  0x95, 0xde, 0xdb, 0x3d, 0x7d, 0xb9, 0xde, 0xbd, 0xdd, 0x17, 0x4d, 0xbd,
  0x91, 0x70, 0x29, 0x3c, 0x42, 0x02, 0x64, 0x3d, 0xf9, 0xd0, 0x05, 0xbe,
  0x75, 0x28, 0x8d, 0x3d, 0xdd, 0xca, 0x24, 0x3e, 0x8d, 0xf2, 0x75, 0xbd,
  0x21, 0x41, 0x19, 0xbe, 0x14, 0xa1, 0xee, 0x3d, 0x4a, 0x75, 0x34, 0x3c,
  0xe4, 0x23, 0x16, 0x3c, 0x28, 0x46, 0x95, 0x3d, 0x51, 0x03, 0x4b, 0x3d,
  0x69, 0x3f, 0xeb, 0xbc, 0xb5, 0x54, 0x2a, 0xbd, 0x40, 0xbf, 0xa4, 0x3b,
  0x21, 0x91, 0x71, 0x3c, 0xc0, 0x66, 0x8e, 0x3d, 0x9e, 0x83, 0xf5, 0xbd,
  0x61, 0x03, 0xed, 0x3c, 0xb6, 0x3b, 0x16, 0x3e, 0x75, 0x54, 0x22, 0x3e,
  0x77, 0x01, 0x23, 0xbe, 0x73, 0xa3, 0xa7, 0xbc, 0xd6, 0x4f, 0x27, 0xbe,
  0x72, 0xa9, 0xae, 0x3d, 0x94, 0xd7, 0x62, 0xbd, 0xd3, 0xa2, 0x28, 0x3e,
  0xae, 0x7b, 0x7e, 0x3d, 0x6d, 0x3d, 0xa0, 0x3d, 0x7b, 0xae, 0x6b, 0x3d,
  0x16, 0xcf, 0x18, 0x3e, 0x54, 0x61, 0xda, 0x3c, 0xfe, 0x77, 0x91, 0x3d,
  0x02, 0x2b, 0x15, 0x3d, 0x9a, 0x18, 0x1f, 0xbe, 0x21, 0xf4, 0xc9, 0xbd,
  0x8c, 0xc3, 0xf2, 0x3c, 0xbf, 0x15, 0x84, 0xbd, 0x27, 0x6b, 0xea, 0xbd,
  0x20, 0x82, 0xe9, 0xbd, 0xa0, 0x59, 0x09, 0x3d, 0xfd, 0x2a, 0x97, 0xbd,
  0xa7, 0x35, 0x6c, 0x3c, 0x52, 0xfb, 0x0d, 0xbe, 0x9b, 0xb8, 0x17, 0x3e,
  0x3c, 0x19, 0x89, 0x3c, 0xeb, 0x4e, 0x59, 0xbd, 0x8c, 0x8f, 0xed, 0xbd,
  0x9e, 0x2f, 0xae, 0xbd, 0x88, 0x44, 0xd8, 0xbd, 0x89, 0x5a, 0xb6, 0x3c,
  0x2d, 0x46, 0x36, 0x3e, 0x4e, 0x59, 0xe9, 0xbd, 0x99, 0xe8, 0x01, 0xbe,
  0x97, 0x55, 0xf9, 0xbc, 0x1a, 0x78, 0xb1, 0xbd, 0x4f, 0x03, 0xdb, 0xbd,
  0xd9, 0x7a, 0x3d, 0x3d, 0xf6, 0x75, 0x14, 0xbe, 0x88, 0x26, 0x44, 0xbd,
  0xbc, 0xf0, 0x04, 0xbe, 0x0b, 0x0b, 0x33, 0xbd, 0x66, 0xea, 0x12, 0xbe,
  0x08, 0x1f, 0x1e, 0xbd, 0x97, 0x35, 0x29, 0x3d, 0x9a, 0x06, 0xbe, 0xbd,
  0x3c, 0xeb, 0xac, 0xbd, 0x86, 0xa4, 0xce, 0xbd, 0xcf, 0xc4, 0x33, 0x3c,
  0x02, 0x2d, 0x15, 0x3e, 0x7d, 0x4e, 0x43, 0xbd, 0x19, 0x37, 0xb5, 0xbc,
  0x06, 0x86, 0x1b, 0xbe, 0x6d, 0xef, 0x2f, 0xbe, 0x39, 0x67, 0x9a, 0x3d,
  0x4a, 0x09, 0xcf, 0xbd, 0x2d, 0x32, 0x15, 0x3e, 0xd0, 0x67, 0xfc, 0xbd,
  0x57, 0xfb, 0xae, 0x3d, 0x52, 0x05, 0x0e, 0x3e, 0xb5, 0x5c, 0xd9, 0xbd,
  0x63, 0x27, 0xa3, 0x3d, 0x56, 0xdf, 0x33, 0x3e, 0x5b, 0xe2, 0x0d, 0xbe,
  0x1b, 0x47, 0x94, 0x3c, 0x8b, 0xcd, 0xbe, 0xbc, 0x99, 0x88, 0x1d, 0xbd,
  0xc4, 0x2c, 0xfa, 0xbd, 0x7c, 0x1f, 0xbb, 0xbd, 0xe2, 0x8c, 0x1e, 0x3e,
  0xd2, 0xe9, 0xa9, 0xbd, 0x36, 0x10, 0x14, 0xbe, 0x23, 0x4b, 0xb6, 0xbc,
  0xf0, 0x0c, 0xbe, 0xbc, 0xaf, 0x33, 0x26, 0xbd, 0xad, 0xa4, 0x0f, 0xbe,
  0x4e, 0x60, 0x1d, 0x3e, 0xc2, 0x4f, 0xf5, 0x3d, 0xb9, 0x16, 0xed, 0x3d,
  0x2b, 0xd4, 0x2e, 0x3e, 0x27, 0xb6, 0x2d, 0xbc, 0x92, 0x4f, 0xc5, 0xbb,
  0x05, 0x01, 0xc6, 0xbc, 0x48, 0x6f, 0x8d, 0xbd, 0x4f, 0x68, 0xc9, 0xbd,
  0x26, 0x56, 0x24, 0x3d, 0x6f, 0x90, 0x6b, 0xbd, 0xaa, 0x64, 0x93, 0x3d,
  0xf7, 0xed, 0x11, 0x3e, 0xc2, 0xcc, 0xb7, 0x3d, 0xfe, 0x24, 0x0b, 0x3e,
  0x39, 0x63, 0x0d, 0xbe, 0x7d, 0xba, 0x22, 0xbe, 0xf0, 0xad, 0xde, 0x3d,
  0xc6, 0x4a, 0xb2, 0x3d, 0x50, 0xb4, 0xf9, 0x3c, 0x62, 0xe5, 0xef, 0xbd,
  0x76, 0x82, 0x1a, 0x3e, 0x09, 0xae, 0xd7, 0x3c, 0x37, 0xa6, 0xc9, 0x3d,
  0x3b, 0x8b, 0xb8, 0x3d, 0x87, 0x0a, 0x3d, 0xbd, 0xec, 0x8b, 0x04, 0xbe,
  0x1c, 0xe7, 0xd3, 0xbd, 0x8a, 0x7c, 0xdc, 0xbd, 0xfa, 0x18, 0x32, 0x3d,
  0x53, 0x65, 0x17, 0x3b, 0x9d, 0x61, 0xe2, 0x3d, 0x25, 0x89, 0x06, 0x3d,
  0x1e, 0x2d, 0xf5, 0xbb, 0xdb, 0xa1, 0xaa, 0xbd, 0xb2, 0xd0, 0x09, 0x3d,
  0x40, 0x62, 0x2a, 0xbe, 0x3a, 0x55, 0x0c, 0x3e, 0xdf, 0xef, 0x81, 0xbd,
  0x38, 0x14, 0xe6, 0x39, 0x36, 0xfe, 0x43, 0xb8, 0x2f, 0x0d, 0x79, 0x3d,
  0x15, 0x48, 0x42, 0x3d, 0x24, 0xc3, 0xb0, 0xbc, 0x5e, 0x09, 0x38, 0x3a,
  0xe6, 0xcb, 0xbc, 0x3d, 0xd3, 0xc9, 0x32, 0x3e, 0x2a, 0x01, 0xb6, 0x3d,
  0x19, 0x59, 0xb7, 0x3d, 0x81, 0x74, 0x53, 0x3d, 0x86, 0x4b, 0xb8, 0xbc,
  0xeb, 0x04, 0x91, 0xbc, 0xe4, 0xe3, 0xbd, 0x3d, 0x73, 0xb7, 0xa2, 0x3d,
  0x55, 0xb2, 0x12, 0x3d, 0xaa, 0xd6, 0x6b, 0x3d, 0x0a, 0x01, 0x95, 0x3d,
  0xbe, 0x59, 0x91, 0xbc, 0x28, 0xff, 0xa9, 0xbd, 0x67, 0xac, 0xbe, 0xbb,
  0x10, 0x5f, 0x16, 0x3d, 0x2f, 0x66, 0xe0, 0xbb, 0x76, 0xc7, 0x42, 0x3c,
  0x8a, 0xc4, 0x84, 0xbd, 0x6b, 0xf3, 0xde, 0xbc, 0x5a, 0x34, 0x03, 0x3e,
  0x1a, 0x29, 0x31, 0x3d, 0xb4, 0x73, 0xe9, 0x3d, 0x41, 0xb4, 0x52, 0x3d,
  0xd3, 0xea, 0xce, 0xba, 0xb6, 0x77, 0x18, 0xbe, 0x3b, 0xf3, 0x6c, 0x3d,
  0x6d, 0x45, 0x35, 0x3e, 0x78, 0x1c, 0xec, 0x3d, 0xc8, 0x73, 0x07, 0x3e,
  0x9e, 0xd1, 0xb7, 0xbd, 0x4f, 0x64, 0xb6, 0x3d, 0xa9, 0x07, 0x23, 0x3e,
  0xaf, 0xbc, 0xf2, 0xbd, 0xd8, 0xba, 0x30, 0x3e, 0x73, 0xb9, 0xf9, 0x3d,
  0xd1, 0xe1, 0x7d, 0xbd, 0xd9, 0xdf, 0x0b, 0xbe, 0x48, 0x62, 0x32, 0x3e,
  0x49, 0x1b, 0x0c, 0x3e, 0x5a, 0xa0, 0x1a, 0xbe, 0xea, 0x7c, 0xcc, 0x3d,
  0x2f, 0xe6, 0x7b, 0xbd, 0xf9, 0x7d, 0xfd, 0xbd, 0x22, 0x8b, 0x16, 0xbe,
  0x29, 0xcd, 0xad, 0xbd, 0xaf, 0xc8, 0xf6, 0x3d, 0xfa, 0xcc, 0x84, 0xbd,
  0xbb, 0x86, 0x2d, 0x3e, 0x99, 0x69, 0xad, 0xbd, 0x17, 0x00, 0x24, 0xbe,
  0xd0, 0x0b, 0xc6, 0x3c, 0x50, 0xa5, 0xd6, 0x3c, 0xf7, 0xac, 0xb6, 0x3d,
  0xbc, 0x15, 0xf0, 0x3d, 0x7d, 0xa5, 0xe0, 0xbb, 0xec, 0x74, 0x22, 0x3d,
  0x5e, 0xcf, 0x04, 0x3e, 0x2b, 0x67, 0xbc, 0x3d, 0xed, 0x61, 0x13, 0xbd,
  0xb5, 0x37, 0x5b, 0xbc, 0x2e, 0x96, 0x86, 0xbd, 0x5a, 0x11, 0x25, 0xbd,
  0xd0, 0x92, 0x2e, 0x3e, 0x73, 0x7c, 0xb0, 0x3d, 0x12, 0x66, 0x03, 0xbe,
  0x4a, 0x01, 0x5e, 0xbd, 0xa5, 0xaf, 0xad, 0xbd, 0xc2, 0x33, 0x7f, 0x3d,
  0x02, 0x00, 0x70, 0xbc, 0xcc, 0x9f, 0x13, 0xbe, 0xc1, 0x21, 0xf0, 0xbb,
  0xe8, 0x66, 0xba, 0xbd, 0x1f, 0x25, 0xf7, 0xbd, 0xb5, 0xf2, 0x93, 0x3c,
  0xf4, 0x1d, 0x78, 0xbc, 0x75, 0x6d, 0x28, 0x3e, 0x33, 0xb7, 0x35, 0xbd,
  0x6d, 0x3a, 0xdf, 0xbd, 0x05, 0x42, 0x38, 0x3d, 0xd9, 0x9c, 0x81, 0xbd,
  0x63, 0xa3, 0x36, 0x3e, 0xa0, 0xc2, 0x04, 0x3e, 0x33, 0xfb, 0xfd, 0xbd,
  0x46, 0xd0, 0x1e, 0x3e, 0x3d, 0x9c, 0x1b, 0xbe, 0xc6, 0xf1, 0x19, 0x3d,
  0xf3, 0x2c, 0xa9, 0x3d, 0x43, 0x4b, 0x08, 0x3e, 0x74, 0x2a, 0xd5, 0x39,
  0x53, 0x08, 0xab, 0xbc, 0xb7, 0x27, 0x0f, 0xbe, 0x6e, 0x48, 0x36, 0xbd,
  0x0b, 0x29, 0x3c, 0x3e, 0x6f, 0xe7, 0x39, 0x3d, 0xaa, 0x0d, 0xb9, 0xbd,
  0x4c, 0xac, 0xea, 0x3d, 0xa0, 0x1e, 0xf6, 0xbd, 0x1a, 0x10, 0xd6, 0x3d,
  0xe7, 0x50, 0x94, 0x3b, 0xa8, 0x5d, 0x92, 0x3d, 0x45, 0x9b, 0x15, 0x3e,
  0xf7, 0x7f, 0xf3, 0xbb, 0xfe, 0x72, 0xb2, 0x3d, 0x87, 0xc5, 0x2c, 0xbe,
  0x8e, 0xdf, 0x28, 0xbd, 0xe8, 0xfb, 0x03, 0xbe, 0x23, 0x30, 0x82, 0x3d,
  0x1f, 0xe0, 0xe7, 0x3d, 0xdb, 0x99, 0x0d, 0x3e, 0xf2, 0xad, 0x23, 0x3e,
  0xb0, 0xcf, 0x0f, 0xbd, 0xc6, 0x42, 0x95, 0x3d, 0x93, 0x01, 0x0e, 0xbe,
  0x63, 0xd3, 0x11, 0x3e, 0x01, 0x91, 0x36, 0xbc, 0xd3, 0x7b, 0xf6, 0x3a,
  0x73, 0xe7, 0x27, 0xbe, 0x56, 0x08, 0x4e, 0x3d, 0x9d, 0x23, 0x3f, 0x3d,
  0xbc, 0x5d, 0x5e, 0xbc, 0x24, 0xe7, 0xcf, 0x3d, 0x67, 0x79, 0x5f, 0xbd,
  0x12, 0xec, 0x47, 0xbb, 0x78, 0xe9, 0xf8, 0x3d, 0xfb, 0xe9, 0xfb, 0x3d,
  0xc7, 0xd1, 0xc3, 0xbc, 0x5f, 0x62, 0x17, 0x3e, 0x13, 0x35, 0xff, 0xbd,
  0x6e, 0x0a, 0xdd, 0xbc, 0x25, 0x60, 0x1f, 0x3d, 0x66, 0x92, 0xc4, 0x3d,
  0x3d, 0xf0, 0xd7, 0xbc, 0x99, 0x13, 0x2a, 0x3c, 0x0b, 0x1f, 0x94, 0xbd,
  0xf9, 0x01, 0x48, 0xbd, 0x16, 0x02, 0x19, 0xbe, 0x8c, 0x1c, 0x19, 0xbe,
  0x65, 0x54, 0x1a, 0x3e, 0x22, 0x67, 0x41, 0x3c, 0x84, 0x4b, 0x0b, 0xbe,
  0x53, 0xac, 0x4e, 0xbc, 0xef, 0x8d, 0xe7, 0xbd, 0x37, 0x16, 0x05, 0xbd,
  0x78, 0xd6, 0xb9, 0xbd, 0x74, 0x51, 0xd2, 0x3c, 0x92, 0x3c, 0xea, 0xbd,
  0xae, 0x9c, 0xe4, 0x3c, 0x04, 0x0e, 0x1c, 0x3e, 0x22, 0x4b, 0x08, 0x3c,
  0x83, 0xef, 0x31, 0xbe, 0x0c, 0x69, 0xbf, 0xbb, 0x5d, 0xe9, 0x7c, 0x3d,
  0x90, 0x35, 0x1d, 0xbd, 0x3a, 0x4e, 0x5f, 0x3d, 0x36, 0xbd, 0xf2, 0x3c,
  0xda, 0x9f, 0x46, 0x3b, 0x1e, 0xe1, 0xb4, 0xbd, 0xfa, 0xdd, 0x36, 0xbe,
  0x4b, 0x64, 0x34, 0xbd, 0xe5, 0x24, 0xf7, 0x3d, 0xc5, 0x9f, 0x84, 0xbd,
  0x6e, 0xb7, 0x13, 0xbd, 0x6d, 0x89, 0x25, 0xba, 0xb9, 0x8b, 0xac, 0xbc,
  0x80, 0x25, 0x84, 0x3d, 0x33, 0xee, 0x0a, 0xbe, 0x06, 0x2a, 0x23, 0xbe,
  0x63, 0xa8, 0xd2, 0xbd, 0x3a, 0xd8, 0xd2, 0xbc, 0x7c, 0x19, 0x0f, 0xbe,
  0x0f, 0xf2, 0x15, 0xbe, 0xa8, 0x61, 0x14, 0xbe, 0x3d, 0x06, 0x89, 0x3c,
  0xd8, 0x66, 0x0c, 0xbd, 0x82, 0x67, 0x81, 0xbd, 0xb5, 0x8e, 0x2a, 0x3d,
  0x4f, 0x47, 0x03, 0xbe, 0x44, 0xbd, 0xad, 0xbd, 0xb1, 0x8c, 0x95, 0x3c,
  0x56, 0x98, 0xc8, 0x3d, 0xa1, 0x69, 0x0c, 0xbe, 0x92, 0x58, 0x87, 0x3c,
  0xb3, 0xcf, 0x0a, 0xbe, 0xf3, 0x9e, 0xf5, 0xbc, 0x14, 0x16, 0xb8, 0x3c,
  0x9f, 0x6b, 0x85, 0x3d, 0xd3, 0xcc, 0x27, 0xbd, 0x57, 0x11, 0x0d, 0x3e,
  0x78, 0x7e, 0xca, 0xbd, 0x79, 0x3f, 0xe8, 0x3d, 0xaf, 0x78, 0xa2, 0x3d,
  0xec, 0xfe, 0x6f, 0xbd, 0x4e, 0x6f, 0x02, 0xbe, 0x65, 0x6b, 0x07, 0x3e,
  0x0c, 0x14, 0x81, 0xbd, 0xfc, 0xbd, 0x78, 0xbd, 0xbd, 0xcc, 0x07, 0xbe,
  0xe9, 0x74, 0x77, 0xbd, 0xf7, 0x58, 0x35, 0xbd, 0x50, 0x28, 0xc0, 0x3d,
  0x53, 0xed, 0xa8, 0xbc, 0x48, 0xd5, 0xd0, 0x3d, 0x85, 0xe6, 0x68, 0xbd,
  0xd1, 0xf8, 0x5f, 0x3d, 0x8e, 0x66, 0xb0, 0xbd, 0xe4, 0x01, 0x03, 0xbe,
  0xf0, 0xda, 0x14, 0xbd, 0xe3, 0x87, 0xfc, 0x3c, 0x82, 0x8e, 0xae, 0xbd,
  0xe1, 0xa7, 0xfc, 0x3d, 0x45, 0xc9, 0x3f, 0xbd, 0xad, 0x62, 0x2f, 0xbe,
  0xdf, 0x71, 0xe0, 0x3d, 0xad, 0x25, 0xe9, 0xbd, 0x9a, 0xb6, 0xff, 0xbd,
  0x88, 0x71, 0x7b, 0x3d, 0xe2, 0x3b, 0x08, 0xbe, 0xe3, 0xc3, 0x16, 0x3e,
  0xbd, 0x0b, 0xc3, 0xbd, 0xc5, 0x38, 0xe6, 0xbd, 0x38, 0x3b, 0xd2, 0xbd,
  0xba, 0x4f, 0x5f, 0xbd, 0x1e, 0x2a, 0x0d, 0xbd, 0x43, 0x79, 0x34, 0xbc,
  0x63, 0x1d, 0xd0, 0x3d, 0x41, 0x38, 0x96, 0x3d, 0x6c, 0xf5, 0x47, 0x3d,
  0x76, 0xef, 0xfa, 0xbd, 0x9a, 0x23, 0x0e, 0x3c, 0x8e, 0x17, 0x01, 0xbe,
  0x11, 0xf1, 0xc3, 0x3d, 0x90, 0xcf, 0xae, 0x3d, 0xaa, 0x23, 0x23, 0xbe,
  0xad, 0x7f, 0xb5, 0xbd, 0x91, 0x59, 0x13, 0xbd, 0xda, 0xbd, 0xb5, 0x3b,
  0xfb, 0x10, 0x8a, 0x3d, 0x3b, 0x19, 0x83, 0xbd, 0xbf, 0x72, 0xd5, 0x3c,
  0x7e, 0xd2, 0x5d, 0x3d, 0xb0, 0x2d, 0x07, 0x3e, 0x98, 0x57, 0x05, 0x3e,
  0x16, 0x91, 0x3b, 0x3d, 0xa5, 0x6d, 0xce, 0x3d, 0x0b, 0xdf, 0xcd, 0xbd,
  0x3d, 0x30, 0x8f, 0x3d, 0x71, 0x5e, 0x30, 0xbd, 0x63, 0x57, 0x57, 0x3d,
  0xf8, 0xfc, 0xe6, 0x3c, 0xcf, 0xde, 0x02, 0x3e, 0xa6, 0x4f, 0x00, 0xbe,
  0xa6, 0xbe, 0xb9, 0x3d, 0xab, 0x24, 0xe1, 0x3d, 0x67, 0x97, 0xc5, 0xbd,
  0x15, 0xa7, 0xf5, 0x3d, 0x3f, 0x24, 0x83, 0xbd, 0x69, 0xbd, 0x22, 0xbd,
  0xd4, 0xac, 0x29, 0x3d, 0x6b, 0x42, 0x18, 0xbe, 0xd1, 0xc1, 0x51, 0xbd,
  0x31, 0x7b, 0x0a, 0xbe, 0xc3, 0x79, 0x02, 0x3d, 0x14, 0xfc, 0x27, 0x3e,
  0xb2, 0x4a, 0x17, 0x3e, 0x1f, 0xf5, 0x82, 0xbd, 0x1f, 0xe5, 0x17, 0x3e,
  0xe0, 0xd4, 0x56, 0x3d, 0xa6, 0x44, 0xb3, 0xbc, 0x98, 0x1e, 0xf0, 0xbd,
  0x95, 0x2e, 0x1c, 0x3e, 0x45, 0x69, 0xc4, 0xbd, 0x63, 0xca, 0x9e, 0xbb,
  0x12, 0xe7, 0x87, 0xbd, 0x7c, 0x76, 0x1c, 0xbe, 0x11, 0x06, 0x34, 0x3d,
  0x79, 0x54, 0x25, 0xbe, 0xbe, 0xf4, 0x01, 0x3c, 0x9b, 0x5b, 0x11, 0xbe,
  0x99, 0xaa, 0xf3, 0x3c, 0x85, 0x2d, 0xd7, 0x3d, 0xf6, 0xca, 0x7f, 0x3d,
  0xf5, 0x4d, 0xbe, 0xbd, 0x26, 0x85, 0x98, 0x3c, 0x41, 0x23, 0x2a, 0x3d,
  0x23, 0x03, 0x12, 0xbe, 0x29, 0xbf, 0x3f, 0xbc, 0xb1, 0x90, 0xb7, 0x3d,
  0x66, 0x7c, 0x88, 0xbd, 0xe5, 0x94, 0xb9, 0x3d, 0x52, 0xb6, 0xa4, 0x3d,
  0x6b, 0x7f, 0xa9, 0x3d, 0xe5, 0x13, 0xb5, 0x3c, 0xd8, 0xd6, 0xa6, 0xbd,
  0x49, 0xf2, 0xac, 0xbd, 0x8d, 0xb6, 0x6c, 0xbd, 0x9f, 0x06, 0x27, 0x3e,
  0xe2, 0x98, 0x91, 0x3d, 0xb6, 0x1e, 0x77, 0xbd, 0x6c, 0x2d, 0xc0, 0x3d,
  0x1a, 0x70, 0xb4, 0xbd, 0x29, 0xcd, 0x7b, 0x3b, 0xd0, 0x22, 0x9d, 0xbd,
  0x33, 0x1e, 0x22, 0x3d, 0x13, 0x15, 0x6e, 0xbd, 0x9a, 0x3d, 0xca, 0xbc,
  0xa7, 0x0f, 0xbf, 0xbd, 0x41, 0x81, 0xd9, 0xbd, 0x18, 0x6b, 0x51, 0x3d,
  0xf5, 0xc0, 0xe3, 0xbd, 0x08, 0xab, 0x28, 0x3e, 0x45, 0x4d, 0x0c, 0xbd,
  0x86, 0x2b, 0x68, 0xbd, 0xc2, 0x02, 0x36, 0xbe, 0xec, 0xd1, 0xd1, 0xbd,
  0xf7, 0xaf, 0x08, 0xbd, 0xc3, 0xb8, 0xd7, 0xbd, 0x3b, 0xc8, 0xae, 0xbd,
  0x28, 0xda, 0x50, 0xbd, 0x07, 0x93, 0x9e, 0x3d, 0x1c, 0xaa, 0xe0, 0xba,
  0xd0, 0x03, 0x1d, 0x3e, 0xd6, 0x0a, 0x16, 0xbe, 0x27, 0x45, 0x25, 0x3e,
  0x2e, 0xfb, 0x32, 0xbe, 0x79, 0x16, 0x36, 0xbe, 0xe9, 0xec, 0xe5, 0xbc,
  0x32, 0x42, 0xe2, 0x3c, 0x2e, 0x29, 0x1b, 0x3e, 0x15, 0x1f, 0x2a, 0xbd,
  0xd4, 0x9a, 0x9b, 0x3d, 0xa1, 0xbe, 0x7f, 0x3b, 0x9d, 0x6f, 0x4b, 0x3d,
  0xf2, 0x5f, 0x29, 0xbe, 0xb8, 0x2e, 0x34, 0xbe, 0xd8, 0x01, 0x0a, 0x3e,
  0x60, 0x56, 0x2b, 0xbe, 0xe0, 0xc6, 0x6e, 0x3d, 0xd7, 0x45, 0xca, 0xb9,
  0xdb, 0x89, 0x7a, 0xbd, 0x4c, 0xee, 0x1f, 0xbc, 0xa6, 0x48, 0xac, 0xbd,
  0xb0, 0x69, 0x8c, 0xbd, 0xcc, 0x32, 0xf4, 0x3d, 0x1e, 0x0f, 0x8f, 0xbd,
  0x25, 0x23, 0x9b, 0x3a, 0xf6, 0xbe, 0x98, 0xbd, 0x23, 0x8a, 0xf2, 0x3c,
  0xee, 0xe3, 0x90, 0xbd, 0xa0, 0x9b, 0x17, 0xbe, 0x29, 0xaa, 0xa8, 0x3d,
  0x41, 0x8a, 0x36, 0xbe, 0xd1, 0x24, 0x93, 0x3d, 0x66, 0x87, 0xd8, 0x3d,
  0x11, 0xcd, 0x31, 0xbe, 0x9d, 0x98, 0xc5, 0x3d, 0xc2, 0x8c, 0xdf, 0x3d,
  0x1a, 0x70, 0xf0, 0x3d, 0x1c, 0x30, 0xce, 0x3d, 0x1b, 0xcb, 0x17, 0x3c,
  0xdd, 0x93, 0x04, 0x3e, 0x20, 0xd3, 0x9b, 0x3d, 0xd7, 0x29, 0x52, 0xbd,
  0x3c, 0x86, 0xba, 0x3d, 0xc2, 0xca, 0x3a, 0x3d, 0x7e, 0x78, 0xe5, 0x3c,
  0xca, 0x58, 0x1c, 0xbc, 0x11, 0xea, 0x1f, 0xbe, 0x4d, 0x0b, 0xb3, 0xbd,
  0x38, 0x9c, 0xb5, 0x3d, 0x2b, 0x55, 0x37, 0xbe, 0xfe, 0x40, 0xf4, 0x3d,
  0xae, 0xb1, 0x18, 0xbe, 0x54, 0x80, 0xb3, 0xbd, 0xde, 0x7e, 0x15, 0x3e,
  0x42, 0x04, 0x4e, 0xbd, 0x56, 0x49, 0x0c, 0xbe, 0xb2, 0xa3, 0x07, 0xbe,
  0xb9, 0xf8, 0xf4, 0xbd, 0x8a, 0xb5, 0xd3, 0xbd, 0x2a, 0xec, 0xff, 0xbc,
  0x71, 0x93, 0x0d, 0xbd, 0xc0, 0x2b, 0x9d, 0x3c, 0x41, 0x79, 0x0b, 0xbe,
  0x62, 0x69, 0x70, 0xbd, 0xd6, 0x12, 0x2d, 0xbe, 0x5e, 0xd5, 0xe4, 0x3d,
  0x73, 0x5d, 0x1c, 0x3d, 0x4a, 0x8d, 0x81, 0xbd, 0xc7, 0x01, 0xb3, 0xbc,
  0x3f, 0x0a, 0x32, 0xbd, 0x16, 0x4b, 0xdd, 0x3d, 0x18, 0x39, 0x20, 0xbd,
  0x72, 0x6b, 0x9e, 0xbc, 0xe2, 0xb1, 0x48, 0x3d, 0x8d, 0x23, 0x30, 0xbe,
  0x20, 0xbc, 0x1c, 0x3e, 0x8a, 0xdc, 0xff, 0xff, 0x10, 0x00, 0x00, 0x00,
  0x0a, 0x00, 0x00, 0x00, 0x1c, 0x00, 0x00, 0x00, 0x38, 0x00, 0x00, 0x00,
  0x04, 0x00, 0x00, 0x00, 0x0a, 0x00, 0x00, 0x00, 0x01, 0x00, 0x00, 0x00,
  0x05, 0x00, 0x00, 0x00, 0x1e, 0x00, 0x00, 0x00, 0x1b, 0x00, 0x00, 0x00,
  0x73, 0x65, 0x71, 0x75, 0x65, 0x6e, 0x74, 0x69, 0x61, 0x6c, 0x2f, 0x63,
  0x6f, 0x6e, 0x76, 0x31, 0x64, 0x5f, 0x31, 0x2f, 0x63, 0x6f, 0x6e, 0x76,
  0x31, 0x64, 0x31, 0x00, 0x8c, 0xdc, 0xff, 0xff, 0xb6, 0xdd, 0xff, 0xff,
  0x04, 0x00, 0x00, 0x00, 0x28, 0x00, 0x00, 0x00, 0x00, 0x00, 0x00, 0x00,
  0x00, 0x00, 0x00, 0x00, 0x00, 0x00, 0x00, 0x00, 0x00, 0x00, 0x00, 0x00,
  0x00, 0x00, 0x00, 0x00, 0x00, 0x00, 0x00, 0x00, 0x00, 0x00, 0x00, 0x00,
  0x00, 0x00, 0x00, 0x00, 0x00, 0x00, 0x00, 0x00, 0x00, 0x00, 0x00, 0x00,
  0x0a, 0xdd, 0xff, 0xff, 0x10, 0x00, 0x00, 0x00, 0x09, 0x00, 0x00, 0x00,
  0x10, 0x00, 0x00, 0x00, 0x2c, 0x00, 0x00, 0x00, 0x01, 0x00, 0x00, 0x00,
  0x0a, 0x00, 0x00, 0x00, 0x1a, 0x00, 0x00, 0x00, 0x73, 0x65, 0x71, 0x75,
  0x65, 0x6e, 0x74, 0x69, 0x61, 0x6c, 0x2f, 0x63, 0x6f, 0x6e, 0x76, 0x31,
  0x64, 0x5f, 0x31, 0x2f, 0x63, 0x6f, 0x6e, 0x76, 0x31, 0x64, 0x00, 0x00,
  0x00, 0xdd, 0xff, 0xff, 0x2a, 0xde, 0xff, 0xff, 0x04, 0x00, 0x00, 0x00,
  0x78, 0x1e, 0x00, 0x00, 0x01, 0x51, 0xfa, 0xbd, 0x41, 0x51, 0xfc, 0xbd,
  0xbd, 0xd4, 0x30, 0x3d, 0xff, 0xb9, 0x35, 0x3e, 0x27, 0x61, 0x27, 0xbe,
  0xa8, 0xfe, 0x05, 0xbc, 0x12, 0xfd, 0xec, 0x3c, 0x32, 0xb6, 0xe1, 0x3b,
  0x7c, 0x1b, 0x00, 0xbe, 0xbb, 0x7d, 0x23, 0x3e, 0xc0, 0x32, 0x2a, 0x3e,
  0xc8, 0xb2, 0xba, 0xbd, 0x7b, 0x46, 0xdc, 0x3d, 0x16, 0x30, 0x84, 0xbc,
  0xb0, 0xf4, 0x0e, 0xbe, 0xdb, 0x5f, 0xe1, 0x3d, 0xbf, 0xce, 0xa2, 0xbd,
  0x50, 0x68, 0xf7, 0x3c, 0xcc, 0x15, 0x80, 0x3d, 0x8b, 0x19, 0x58, 0x3d,
  0xb6, 0x76, 0xdc, 0xbd, 0xb1, 0xd7, 0x41, 0xbd, 0x98, 0x90, 0x2b, 0x3e,
  0x08, 0x4d, 0x11, 0x3e, 0x89, 0xeb, 0x8b, 0xbd, 0xf7, 0x51, 0xe4, 0x3b,
  0xec, 0xf2, 0xae, 0xbb, 0xab, 0x95, 0x6e, 0xbd, 0xe3, 0x9d, 0xfa, 0x3d,
  0xac, 0xbc, 0x22, 0x3e, 0xe7, 0xae, 0xaf, 0x3c, 0xbd, 0x32, 0xbf, 0x3c,
  0x82, 0x70, 0xb6, 0xbd, 0x39, 0x47, 0x17, 0xbe, 0x76, 0xa0, 0x00, 0x3e,
  0xa7, 0x2d, 0xef, 0xbd, 0xb7, 0xc3, 0x08, 0x3c, 0xf0, 0x81, 0xcc, 0xbd,
  0xe1, 0x29, 0x45, 0xbd, 0xdf, 0x13, 0x11, 0xbe, 0xbf, 0xb5, 0x26, 0x3d,
  0xb6, 0xa7, 0x1f, 0x3d, 0x16, 0x92, 0xd2, 0xbc, 0xdc, 0xfc, 0x03, 0xbe,
  0x4f, 0x76, 0xb4, 0x3d, 0x85, 0xce, 0x03, 0xbd, 0x6a, 0x73, 0x01, 0xbe,
  0x94, 0xad, 0xb6, 0xbd, 0x40, 0x97, 0x5b, 0x3a, 0x90, 0xe8, 0xbd, 0xbd,
  0xb0, 0x65, 0x2a, 0x3e, 0x1a, 0x62, 0x0a, 0xbe, 0xcf, 0xdc, 0x0e, 0x3c,
  0x9e, 0x76, 0x03, 0x3e, 0x90, 0x28, 0xb3, 0x3d, 0xa8, 0x13, 0x9b, 0xbd,
  0xbf, 0x1e, 0xc6, 0xbc, 0xf9, 0x7e, 0xc4, 0x3d, 0x17, 0x08, 0x60, 0x3d,
  0x4e, 0x86, 0xd1, 0x3d, 0x60, 0x6d, 0xf4, 0x3d, 0xf9, 0x38, 0xf1, 0xbb,
  0x45, 0xbd, 0x82, 0x3d, 0xb9, 0x5f, 0xd4, 0x3c, 0x4d, 0x67, 0x43, 0x3c,
  0x53, 0x34, 0x13, 0x3d, 0xf7, 0x89, 0xe2, 0x3d, 0xd1, 0x66, 0x3e, 0xbd,
  0x93, 0xac, 0x07, 0x3d, 0xcf, 0xe3, 0xad, 0x3d, 0x44, 0x53, 0xee, 0x3d,
  0xbb, 0xd8, 0xcf, 0x3d, 0x54, 0xc3, 0x80, 0xbc, 0x36, 0xd5, 0x2f, 0xbd,
  0x0e, 0x06, 0xb2, 0xbd, 0x44, 0x96, 0x79, 0xbd, 0x5e, 0x4c, 0x20, 0x3d,
  0xed, 0x87, 0xbf, 0x3d, 0x56, 0xb9, 0x0d, 0x3e, 0xc1, 0x83, 0x8e, 0xbd,
  0xbf, 0x0f, 0x16, 0x3c, 0x0a, 0xd9, 0x96, 0x3d, 0x25, 0xc9, 0x0b, 0xbe,
  0x2d, 0x3b, 0x8c, 0x3d, 0x04, 0xa7, 0xd3, 0xbd, 0x06, 0xe9, 0x0b, 0x3e,
  0xad, 0xa4, 0x25, 0x3d, 0x7d, 0x6f, 0x05, 0x39, 0x75, 0x8c, 0xee, 0x3d,
  0x04, 0x5e, 0x1b, 0xbd, 0x6f, 0xa7, 0x9d, 0x3d, 0xa3, 0x17, 0x81, 0xbd,
  0x9a, 0xb1, 0x59, 0xbd, 0x19, 0xbd, 0x21, 0x3d, 0x5a, 0x12, 0x14, 0xbe,
  0xd6, 0x6a, 0x36, 0xbe, 0x9f, 0x89, 0x32, 0xbe, 0xc1, 0x5a, 0x0a, 0xbd,
  0x54, 0x1c, 0x64, 0x3c, 0xac, 0x43, 0x13, 0x3e, 0x92, 0x24, 0x1b, 0x3e,
  0x42, 0x06, 0x11, 0x3e, 0xc3, 0xcd, 0x7e, 0xbd, 0xf6, 0xe1, 0x1b, 0x3e,
  0x65, 0xcf, 0x09, 0xbe, 0xe0, 0x50, 0x25, 0x3e, 0x75, 0x18, 0x23, 0xbc,
  0x78, 0x8d, 0xe3, 0x3d, 0xeb, 0xd9, 0x73, 0xba, 0x67, 0x6f, 0x2d, 0x3d,
  0xe1, 0xf4, 0xf1, 0xbd, 0xf7, 0x0a, 0x1c, 0xbd, 0x88, 0x55, 0xf8, 0xbd,
  0xf5, 0x95, 0xf6, 0xbc, 0x49, 0x65, 0x0e, 0x3e, 0x3f, 0x41, 0x47, 0x3c,
  0x6a, 0x23, 0x04, 0xbe, 0xc9, 0x6a, 0xed, 0x3d, 0x62, 0x41, 0xa0, 0xbc,
  0xf7, 0xe2, 0xa3, 0xbd, 0x59, 0x5e, 0x96, 0x3d, 0x39, 0x70, 0xc1, 0xbd,
  0x0e, 0xcc, 0x53, 0xbd, 0xbd, 0x70, 0xe0, 0x3d, 0x55, 0x2d, 0x95, 0xbd,
  0x18, 0x43, 0xfb, 0x3d, 0x31, 0x30, 0x14, 0x3e, 0xa4, 0x90, 0xf7, 0xbd,
  0x02, 0xd0, 0x0c, 0xbe, 0xf2, 0x6d, 0x9a, 0xbc, 0xf1, 0x8c, 0x93, 0x3c,
  0x14, 0x74, 0x05, 0x3e, 0x61, 0x8c, 0x8c, 0x3d, 0xfb, 0x23, 0xff, 0x3d,
  0x98, 0xb7, 0x14, 0xbe, 0x1d, 0xdd, 0x9f, 0xbd, 0x6d, 0x1b, 0x98, 0x3b,
  0x33, 0xf9, 0x5c, 0x3a, 0xc3, 0xb0, 0xe4, 0xbd, 0x4c, 0x47, 0x1d, 0x3e,
  0x3a, 0x31, 0x16, 0xbe, 0xf5, 0xb5, 0xab, 0x3d, 0xe5, 0xa8, 0x28, 0x3e,
  0xba, 0x3f, 0x70, 0xbc, 0xdc, 0xb7, 0x14, 0xbc, 0x75, 0x2a, 0x07, 0x3e,
  0x16, 0x4d, 0xaf, 0xbd, 0x5f, 0xf9, 0x92, 0xbc, 0x61, 0x99, 0xa1, 0xbd,
  0x80, 0x7e, 0x13, 0x3e, 0x8d, 0xe3, 0xb4, 0xbd, 0xb1, 0x67, 0x71, 0xbd,
  0x27, 0xbf, 0x87, 0x3d, 0xa6, 0x9f, 0x10, 0xbe, 0x7a, 0x8b, 0x23, 0x3d,
  0xa6, 0xe1, 0xef, 0x3b, 0xf8, 0x4c, 0xad, 0xbd, 0xc5, 0x48, 0xee, 0xbc,
  0xdf, 0x1a, 0xa4, 0xbc, 0x52, 0x4e, 0xf8, 0x3d, 0x93, 0x40, 0xdd, 0x3c,
  0xf8, 0xfc, 0xc7, 0x3d, 0xa6, 0x11, 0x2f, 0x3e, 0xe9, 0xda, 0xa1, 0x3d,
  0x17, 0x80, 0x84, 0xbc, 0x6c, 0x7e, 0x61, 0xbd, 0x41, 0x6d, 0xfb, 0x3d,
  0x47, 0x3a, 0x09, 0x3e, 0x91, 0x78, 0x8f, 0x3d, 0x40, 0xe7, 0xf4, 0x3d,
  0x76, 0xa1, 0x80, 0x3d, 0xdb, 0xd7, 0xe5, 0xbd, 0xf2, 0x8b, 0x58, 0x3d,
  0xfb, 0x51, 0xaa, 0xbc, 0xe5, 0x2a, 0x60, 0xbd, 0xa0, 0x29, 0x19, 0x3e,
  0xad, 0x3d, 0x27, 0x3e, 0x22, 0x8c, 0x28, 0xbe, 0x05, 0x9d, 0x83, 0xbd,
  0x96, 0x37, 0x00, 0x3b, 0xf6, 0x1e, 0xb5, 0x3d, 0xbc, 0xec, 0x27, 0x3c,
  0x8a, 0xfd, 0xd9, 0xbd, 0x85, 0x0d, 0x8b, 0x3d, 0x49, 0x8f, 0xbd, 0xbd,
  0xec, 0xcc, 0x1b, 0x3e, 0x44, 0xa7, 0x1b, 0x3e, 0xff, 0x03, 0xbd, 0x3d,
  0xfb, 0x75, 0xd0, 0x3d, 0x0c, 0x1e, 0xd4, 0xbc, 0x70, 0x95, 0x26, 0xbd,
  0x20, 0x0e, 0x93, 0x3d, 0x77, 0x12, 0x04, 0xbd, 0xed, 0xc5, 0xfb, 0x3c,
  0x71, 0x4e, 0xfa, 0x3d, 0x18, 0x0d, 0x3a, 0xbe, 0x46, 0xbd, 0xd7, 0x3c,
  0x15, 0x9a, 0x82, 0x3d, 0x29, 0x68, 0xce, 0x3c, 0x89, 0x48, 0xd1, 0xbd,
  0x7e, 0x80, 0xe1, 0xbc, 0x3e, 0xc6, 0x08, 0x3e, 0xf4, 0xb5, 0x0f, 0x3e,
  0x83, 0xf3, 0xaa, 0x3c, 0xcf, 0x20, 0xa8, 0xbd, 0x7b, 0x10, 0x8f, 0xbd,
  0x61, 0xd9, 0xe2, 0xbd, 0x2f, 0x78, 0x10, 0x3e, 0x25, 0x4d, 0xe4, 0x3d,
  0x68, 0xf1, 0xf3, 0xbd, 0x03, 0x82, 0x89, 0x3d, 0x26, 0xa9, 0xf5, 0xbb,
  0x04, 0x61, 0x14, 0x3e, 0x5d, 0xd1, 0x10, 0xbd, 0xa9, 0x55, 0x05, 0x3e,
  0x8a, 0x8d, 0x85, 0xbc, 0x13, 0x43, 0x22, 0x3e, 0x07, 0xdf, 0x1e, 0xbe,
  0x1f, 0xac, 0xd0, 0x3d, 0x31, 0x41, 0xcc, 0x3c, 0x02, 0x4a, 0xe8, 0xbd,
  0xdd, 0x14, 0x38, 0xbc, 0xb7, 0xb1, 0x73, 0xbd, 0x69, 0x5b, 0x13, 0xbd,
  0x50, 0xbf, 0x22, 0xbd, 0x67, 0xc0, 0xd8, 0xbd, 0xb4, 0xe9, 0xc2, 0xbd,
  0xe0, 0x02, 0x9f, 0x3d, 0xda, 0x5a, 0x0e, 0x3e, 0x8e, 0xcb, 0xaf, 0xbd,
  0xf3, 0x03, 0x4e, 0xbc, 0xcb, 0xb9, 0x11, 0xbe, 0x50, 0x59, 0xad, 0x3d,
  0xe1, 0x13, 0x37, 0xbb, 0x21, 0x29, 0x2a, 0xbe, 0x8d, 0x45, 0x28, 0xbe,
  0x07, 0x2c, 0x82, 0x3c, 0x79, 0x93, 0x01, 0x3e, 0xeb, 0x3b, 0x41, 0x3c,
  0x26, 0x17, 0x26, 0xbd, 0x47, 0xa6, 0xcf, 0x3d, 0xd3, 0xf4, 0x3b, 0x3d,
  0xc6, 0x83, 0xf4, 0x3d, 0xb8, 0xe3, 0x8d, 0x3c, 0x36, 0x5d, 0x84, 0x3d,
  0xdd, 0x83, 0xe2, 0xbd, 0x6d, 0x45, 0x87, 0x3d, 0xb9, 0xcd, 0xc7, 0xbd,
  0xaa, 0x68, 0x27, 0x3e, 0xd0, 0x77, 0x99, 0xbd, 0xc5, 0xb0, 0xe7, 0x3d,
  0x35, 0xba, 0xbb, 0x3d, 0x2a, 0x99, 0xbf, 0x3d, 0x6d, 0x32, 0x93, 0xbd,
  0xc1, 0x75, 0xec, 0xbd, 0x15, 0x73, 0x87, 0xbc, 0x9c, 0x4f, 0xc6, 0x3d,
  0x39, 0xdd, 0xd2, 0x3d, 0xb4, 0xd3, 0x84, 0x3d, 0xfc, 0x3d, 0x03, 0xbe,
  0x13, 0x6b, 0xf5, 0xbb, 0x7d, 0xe9, 0x2e, 0xbe, 0x89, 0xe3, 0xc8, 0x3d,
  0x85, 0xaf, 0x92, 0x3d, 0xf4, 0x90, 0xf3, 0xbd, 0x16, 0x90, 0xbf, 0x3d,
  0x08, 0x52, 0x76, 0x3d, 0xcc, 0x06, 0x04, 0xbe, 0x7b, 0x9c, 0x15, 0x3a,
  0x3b, 0x02, 0x87, 0xbd, 0xaa, 0x92, 0x06, 0xbb, 0xe0, 0xaa, 0xc4, 0xbd,
  0x09, 0xf6, 0x66, 0x3d, 0xc6, 0x83, 0xd9, 0xbd, 0x94, 0xeb, 0x84, 0xbd,
  0x3d, 0x9b, 0xba, 0xbd, 0xd3, 0x48, 0x9c, 0xbc, 0xde, 0xbd, 0xcc, 0x3c,
  0x60, 0x35, 0x62, 0x3d, 0xc4, 0x74, 0x50, 0xbd, 0x82, 0x61, 0x03, 0xbc,
  0xa6, 0x5e, 0x7f, 0xbc, 0x30, 0xd3, 0x95, 0x3d, 0x44, 0x35, 0xe9, 0x3d,
  0xba, 0x1d, 0x91, 0x3d, 0x1c, 0xe9, 0x1c, 0x3c, 0x73, 0xa1, 0xcd, 0xbd,
  0x9b, 0xda, 0x54, 0xbc, 0x17, 0x81, 0xf0, 0xbd, 0xca, 0x42, 0x1e, 0xbe,
  0x25, 0x27, 0x4c, 0x3c, 0xaa, 0x5c, 0xaf, 0x3d, 0xef, 0xfe, 0xdf, 0x3d,
  0xc4, 0xbd, 0x89, 0x3c, 0x75, 0x6d, 0x1d, 0xbe, 0xac, 0x91, 0x90, 0x3d,
  0x45, 0x9f, 0xc1, 0x3d, 0x79, 0x1a, 0xb3, 0xbd, 0xc8, 0x91, 0xdf, 0xbd,
  0xbb, 0x3a, 0xda, 0x3d, 0x43, 0x4a, 0x06, 0xbe, 0xa8, 0x76, 0xc5, 0x3d,
  0x34, 0x3f, 0xd7, 0xbd, 0x4f, 0x46, 0x11, 0xbe, 0x8f, 0xb2, 0xb3, 0x3c,
  0x05, 0xd7, 0x23, 0x3e, 0xd5, 0x97, 0x2f, 0xbe, 0x4b, 0x5d, 0xec, 0x3d,
  0x0b, 0x13, 0x0b, 0xbd, 0xf8, 0x66, 0xb7, 0xbb, 0x8b, 0xe6, 0x75, 0x3d,
  0x07, 0xd0, 0x19, 0x3e, 0xf0, 0x99, 0xd7, 0xbc, 0xbd, 0xd5, 0xff, 0xbc,
  0x3e, 0x39, 0xad, 0x3d, 0x86, 0x4c, 0x7d, 0xbd, 0x8d, 0x6d, 0xf7, 0x3d,
  0x52, 0x75, 0xd0, 0x3d, 0xbc, 0x59, 0x9f, 0xbd, 0x10, 0xd7, 0xfc, 0xbd,
  0xb2, 0xff, 0xdd, 0xbd, 0xc0, 0x76, 0x17, 0x3e, 0xb6, 0xb9, 0x76, 0xbd,
  0xcb, 0x16, 0xbf, 0x3d, 0x8b, 0x72, 0xb0, 0xbd, 0x98, 0x5b, 0xcb, 0x3d,
  0x9d, 0x26, 0x36, 0x3e, 0xf6, 0x43, 0x09, 0xbd, 0x8b, 0x85, 0x3b, 0xbd,
  0xdc, 0x6b, 0x3e, 0x3d, 0x67, 0x1a, 0x88, 0xbd, 0x33, 0x9d, 0x1d, 0xbe,
  0x5a, 0xae, 0xc2, 0xbd, 0xae, 0x26, 0x37, 0x3e, 0x83, 0x86, 0x62, 0xbd,
  0xb1, 0x5e, 0x03, 0x3d, 0xe4, 0x29, 0x84, 0xbc, 0xa0, 0x0a, 0x05, 0x3e,
  0x71, 0x05, 0x05, 0x3e, 0x30, 0xc3, 0x18, 0xbe, 0xb3, 0x7b, 0xff, 0x3c,
  0x1b, 0xf3, 0xea, 0xbd, 0x45, 0xa9, 0x02, 0xbd, 0x51, 0xb5, 0x85, 0xbd,
  0x40, 0x09, 0x98, 0x3c, 0x62, 0xc8, 0xc4, 0x3d, 0xe9, 0xce, 0xe4, 0xbd,
  0xc0, 0x7b, 0x0b, 0x3e, 0xda, 0x17, 0xda, 0x3d, 0x23, 0x69, 0x0d, 0xbc,
  0x28, 0x1d, 0xf3, 0x3d, 0x9b, 0x44, 0x99, 0xbd, 0x47, 0x16, 0x23, 0x3e,
  0xab, 0xee, 0x03, 0x3e, 0x63, 0x6c, 0x02, 0xbd, 0x15, 0x8a, 0xfd, 0x3d,
  0xcb, 0x21, 0x0a, 0xbe, 0x85, 0x6a, 0xd1, 0xbc, 0xba, 0x08, 0x05, 0x3e,
  0x7c, 0x50, 0xc7, 0x3c, 0xe2, 0x20, 0x17, 0x3d, 0xbc, 0x94, 0xf8, 0xbc,
  0xe6, 0xd2, 0xbd, 0x3d, 0x79, 0xb6, 0x41, 0xbd, 0x1f, 0x34, 0xce, 0xbb,
  0x94, 0x86, 0xa2, 0xbc, 0xf4, 0x8c, 0xc1, 0xbd, 0xe1, 0x67, 0x15, 0xbb,
  0x98, 0xc0, 0x38, 0x3b, 0xde, 0xad, 0xf0, 0x3d, 0x3b, 0x8a, 0x02, 0xbe,
  0x38, 0x3f, 0xcd, 0xbd, 0xfe, 0x0d, 0x15, 0x3e, 0x21, 0x90, 0xe0, 0xbd,
  0xd4, 0x1a, 0xab, 0xbd, 0x4c, 0x78, 0x29, 0xbe, 0xcb, 0xa1, 0x53, 0xbd,
  0xe2, 0xc6, 0x8b, 0x3d, 0x62, 0x83, 0x30, 0x3e, 0x2d, 0xfb, 0xd8, 0x3c,
  0xb2, 0xd9, 0xb1, 0x3d, 0xac, 0x6a, 0x36, 0x3e, 0x33, 0xf3, 0x18, 0xbe,
  0xa5, 0x33, 0x80, 0x3d, 0xa2, 0x5b, 0xbe, 0x3d, 0x91, 0x20, 0x3d, 0x3d,
  0xb7, 0xe7, 0x02, 0xbd, 0x85, 0xbc, 0x05, 0x3d, 0xd7, 0x14, 0x6b, 0x3d,
  0x6e, 0x06, 0xb5, 0x3d, 0xe5, 0xb9, 0xd9, 0xbd, 0xbd, 0xde, 0x20, 0x3e,
  0xfd, 0x0f, 0x8f, 0xbd, 0xb3, 0xab, 0x0d, 0xbd, 0x65, 0x5b, 0x8b, 0x3d,
  0xfc, 0xf9, 0x99, 0xbd, 0x7a, 0x75, 0x8d, 0x3d, 0x98, 0xbc, 0xc4, 0x3c,
  0x01, 0x6e, 0x13, 0xbe, 0x2a, 0x87, 0x20, 0xbe, 0x9f, 0x0e, 0x39, 0x3d,
  0x79, 0x1d, 0x04, 0x3e, 0xd2, 0x96, 0x7e, 0x3d, 0xeb, 0x8f, 0xaf, 0x3a,
  0xdf, 0x82, 0x7a, 0xba, 0xd0, 0xec, 0xbb, 0xbd, 0x84, 0x3f, 0xb8, 0x3c,
  0x35, 0x3a, 0x9c, 0x3d, 0xcf, 0x07, 0xd3, 0x3c, 0xe3, 0xaf, 0x17, 0x3e,
  0x5f, 0xbd, 0x84, 0x3d, 0x62, 0xc2, 0x62, 0xbc, 0x37, 0xd8, 0x1c, 0xbd,
  0x3a, 0x77, 0x05, 0x3d, 0x56, 0xa6, 0x5c, 0x3d, 0xc6, 0x4a, 0x00, 0xbd,
  0xce, 0x00, 0x2c, 0xbd, 0x26, 0xc4, 0x76, 0x3d, 0x22, 0xe6, 0x28, 0xbe,
  0xe3, 0xad, 0x11, 0xbe, 0x66, 0x9d, 0x28, 0x3c, 0xd5, 0x90, 0xc7, 0x3d,
  0x19, 0x16, 0x90, 0x3d, 0xa7, 0x4c, 0x5c, 0x3d, 0x71, 0xe1, 0x39, 0x3d,
  0x2e, 0xfb, 0x3e, 0xbd, 0xd2, 0x7d, 0x20, 0xbe, 0x43, 0xc7, 0xa1, 0x3c,
  0xc7, 0xa8, 0xb3, 0x3d, 0xd5, 0x33, 0xee, 0x3c, 0xcc, 0xdc, 0xa8, 0x3d,
  0x6f, 0x58, 0x95, 0xbd, 0x28, 0xf8, 0x87, 0xbd, 0xbf, 0x30, 0x25, 0xbc,
  0x27, 0x1d, 0x91, 0x3d, 0x80, 0xf0, 0x12, 0x3d, 0xec, 0xc3, 0x90, 0x3b,
  0x68, 0x25, 0x2c, 0xbd, 0x67, 0xdd, 0x80, 0xbd, 0xc6, 0x3a, 0xba, 0xbc,
  0x7e, 0x9a, 0xb0, 0xbd, 0x1d, 0xb8, 0x1e, 0x3e, 0x05, 0x35, 0x13, 0x3e,
  0x76, 0x1f, 0x30, 0x3e, 0x4d, 0x55, 0xce, 0x3b, 0x03, 0xaf, 0x4a, 0x3d,
  0x62, 0x2d, 0xc3, 0x3d, 0x39, 0x8f, 0xb3, 0x3d, 0xcc, 0x78, 0xec, 0x3d,
  0xc9, 0xfc, 0xc3, 0x3d, 0x32, 0xa3, 0x27, 0xbd, 0xe5, 0xad, 0xdb, 0x3d,
  0x18, 0xec, 0x02, 0x3e, 0xd5, 0x12, 0xc6, 0xbd, 0x1c, 0x33, 0xf8, 0x3d,
  0xec, 0xf7, 0x42, 0xbd, 0x40, 0x21, 0x8e, 0x3c, 0x75, 0xd4, 0x55, 0xbc,
  0x3f, 0x59, 0x2d, 0x3e, 0x3d, 0x8f, 0xde, 0x3c, 0xba, 0xd7, 0xc5, 0x3d,
  0xdf, 0x4e, 0x19, 0xbe, 0xa3, 0x4a, 0xc6, 0x3c, 0xbd, 0x40, 0x01, 0xbe,
  0x1e, 0x93, 0x30, 0xbd, 0x34, 0x28, 0xff, 0xbc, 0x1a, 0x5c, 0x85, 0xbb,
  0xce, 0xe8, 0x24, 0xbc, 0xa6, 0xa5, 0x06, 0x3e, 0xfe, 0x67, 0xff, 0xbd,
  0x05, 0x7d, 0xeb, 0x3d, 0xb7, 0x50, 0x72, 0xbb, 0xc8, 0x61, 0xe6, 0xbc,
  0x05, 0xa4, 0x01, 0x3d, 0xfe, 0x6b, 0xd0, 0x3d, 0xfd, 0xd4, 0x0d, 0xbe,
  0xd9, 0xdb, 0x8c, 0x3c, 0xac, 0x51, 0x7f, 0xbd, 0x5f, 0xb7, 0x09, 0xbe,
  0xea, 0x5e, 0x2d, 0xbe, 0xd3, 0x63, 0xb2, 0x3c, 0xb9, 0x42, 0x47, 0x3d,
  0xe6, 0x6d, 0xf5, 0xbd, 0xe3, 0x84, 0xf9, 0x3d, 0xba, 0x8e, 0x03, 0x3e,
  0x21, 0xc7, 0xe8, 0x3d, 0x14, 0x9b, 0xbb, 0x3d, 0x14, 0x4e, 0xf3, 0x3c,
  0x19, 0x4f, 0xe6, 0xbd, 0x92, 0x2e, 0x38, 0x3d, 0x86, 0xed, 0x72, 0xbd,
  0x20, 0x49, 0xa0, 0x3d, 0xb1, 0x32, 0xdd, 0xbd, 0xe7, 0x07, 0x02, 0x3e,
  0xfd, 0x15, 0x9a, 0x3d, 0x17, 0x75, 0x9a, 0xbc, 0x68, 0x0b, 0xae, 0xbc,
  0xbe, 0xbd, 0x00, 0x3e, 0xda, 0x47, 0xfb, 0x3d, 0xc1, 0x8e, 0x52, 0x3d,
  0xcd, 0xa2, 0xa9, 0xbd, 0x17, 0x0c, 0xaa, 0xbd, 0xf2, 0x51, 0xe3, 0x3d,
  0xee, 0x30, 0xfe, 0xbc, 0x89, 0x33, 0x1b, 0xbe, 0xd0, 0x79, 0x9a, 0x3d,
  0xa3, 0xb6, 0x1a, 0xbe, 0xff, 0xe0, 0x13, 0x3e, 0xa9, 0xcf, 0x1b, 0xbe,
  0xe1, 0xa1, 0x21, 0x3e, 0x60, 0x27, 0x50, 0xbd, 0x00, 0x95, 0xcc, 0xbd,
  0x4f, 0xd1, 0x8c, 0x3b, 0xeb, 0xbc, 0x0c, 0xbe, 0x9f, 0x6d, 0x9b, 0xbd,
  0xbe, 0xf2, 0x2e, 0xbe, 0xa3, 0xc5, 0x00, 0xbe, 0x94, 0xd8, 0x1f, 0xbe,
  0x9e, 0x3b, 0x36, 0x3e, 0x58, 0x08, 0x20, 0xbe, 0xed, 0x95, 0x32, 0x3d,
  0x1d, 0x23, 0x5d, 0xbd, 0x1e, 0xeb, 0x25, 0xbe, 0xd5, 0x91, 0xb8, 0x3d,
  0xa0, 0x2b, 0x36, 0xbd, 0xd2, 0x11, 0xe3, 0xbd, 0x21, 0xf1, 0x0c, 0xbe,
  0x1d, 0x75, 0x0e, 0xbe, 0x8e, 0x7b, 0xe1, 0x3c, 0xf7, 0x1a, 0x00, 0xbd,
  0xb1, 0x65, 0xd4, 0xbd, 0x7d, 0x15, 0x61, 0xbd, 0x20, 0x0a, 0xf7, 0x3d,
  0x22, 0x5b, 0x15, 0xbd, 0xee, 0x91, 0x36, 0xbd, 0xab, 0xa1, 0x6b, 0xbd,
  0xfd, 0xa8, 0xa7, 0xbd, 0x8c, 0xc2, 0x0f, 0xbe, 0xb8, 0xe4, 0x2d, 0x3d,
  0x2b, 0xc7, 0x15, 0x3d, 0x43, 0x54, 0x6f, 0xbd, 0x4a, 0xad, 0xad, 0x3d,
  0x87, 0x13, 0x7a, 0x3d, 0x0a, 0x88, 0x7a, 0x3d, 0x1a, 0x0f, 0x42, 0xbc,
  0x7e, 0xd4, 0xf7, 0xba, 0x12, 0xd1, 0x17, 0x3d, 0x56, 0xf5, 0x90, 0xbd,
  0x57, 0xd7, 0x05, 0xbe, 0x2b, 0x79, 0x9a, 0xbd, 0x36, 0xa5, 0xcc, 0x3b,
  0xbc, 0xc4, 0xf6, 0xbd, 0x16, 0xdd, 0xdd, 0xbd, 0x4b, 0x45, 0x72, 0x3b,
  0x0c, 0x40, 0xd7, 0xbd, 0xa4, 0x87, 0x02, 0xbe, 0x63, 0x1c, 0x70, 0xbd,
  0xb1, 0x0b, 0xca, 0xbd, 0xa3, 0x6f, 0x83, 0x3d, 0xae, 0xf4, 0x29, 0xbe,
  0x74, 0x7c, 0xd8, 0xbc, 0x28, 0x97, 0x3d, 0xbd, 0x22, 0x04, 0x22, 0x3e,
  0x69, 0x15, 0xe8, 0x3d, 0x68, 0xa4, 0x1c, 0xbe, 0x6c, 0xb8, 0x27, 0x3e,
  0x79, 0x6e, 0x30, 0xbe, 0x46, 0xa3, 0x86, 0x3d, 0x7a, 0xd9, 0xb4, 0x3d,
  0xad, 0xfa, 0x00, 0xbe, 0xb0, 0x32, 0x20, 0x3e, 0x77, 0xa3, 0xb9, 0xbd,
  0x49, 0x45, 0x16, 0x3e, 0x0a, 0x2f, 0xb5, 0xbd, 0xf5, 0x10, 0x6a, 0xbd,
  0xe9, 0xa6, 0xb9, 0xbd, 0x33, 0x08, 0xa3, 0x3d, 0x6a, 0x3a, 0x8d, 0xbd,
  0x49, 0x7e, 0x74, 0x3d, 0x5d, 0xb2, 0x72, 0xbd, 0xb6, 0xad, 0x16, 0x3e,
  0x26, 0x7b, 0x19, 0x3e, 0x1d, 0x76, 0x07, 0xbd, 0xde, 0x4e, 0x0f, 0x3d,
  0x11, 0x30, 0x49, 0xbd, 0xf3, 0x08, 0xfe, 0x3b, 0x5f, 0x93, 0xbb, 0x3d,
  0x77, 0x2e, 0x97, 0x3d, 0x2d, 0x03, 0x35, 0x3d, 0x4d, 0x57, 0xfb, 0x3b,
  0x45, 0xe0, 0xea, 0xbd, 0x4b, 0xfb, 0xcd, 0xbc, 0x52, 0x04, 0x38, 0xbd,
  0x0a, 0x0d, 0xae, 0xbd, 0x52, 0xf2, 0x62, 0xbd, 0x8a, 0x42, 0x60, 0xbd,
  0x5e, 0xa7, 0x6e, 0x3d, 0x55, 0x6c, 0x18, 0x3e, 0x6d, 0x6e, 0x97, 0xbb,
  0x5a, 0x80, 0xb3, 0xbd, 0xef, 0x33, 0x12, 0x3e, 0xa8, 0xc2, 0x0d, 0x3e,
  0x8f, 0xcf, 0x36, 0x3e, 0xda, 0x91, 0xc7, 0xbd, 0x70, 0x14, 0x12, 0xbe,
  0xae, 0x79, 0xef, 0xbd, 0x0b, 0x3d, 0x00, 0xbe, 0xc3, 0xbf, 0xf8, 0xbd,
  0x85, 0x25, 0x80, 0x3d, 0xa0, 0xee, 0x30, 0xbc, 0xd8, 0x3c, 0xa7, 0xbd,
  0xf5, 0x09, 0x0f, 0x3e, 0xd5, 0x6f, 0xe2, 0xbd, 0x79, 0x83, 0xac, 0x3d,
  0x45, 0x20, 0x65, 0x3d, 0x4d, 0x90, 0xe1, 0xbd, 0x27, 0x94, 0xd2, 0xbc,
  0xce, 0xe5, 0x8a, 0xbd, 0x9d, 0x05, 0x16, 0xbe, 0x2a, 0xe5, 0x3a, 0x3e,
  0x4e, 0x64, 0x05, 0xbd, 0xe7, 0xee, 0xd1, 0x3d, 0x9b, 0x87, 0x84, 0x3c,
  0x6e, 0x74, 0x40, 0xbd, 0xde, 0x16, 0x44, 0x3d, 0x92, 0x77, 0xbd, 0xbd,
  0x94, 0x55, 0xef, 0xbd, 0xd4, 0xab, 0x00, 0xbe, 0x1c, 0xb3, 0xd3, 0xbd,
  0x30, 0x2a, 0x1a, 0x3e, 0x0d, 0x46, 0xd8, 0x3d, 0xc6, 0xe6, 0xac, 0x3d,
  0x85, 0xa0, 0x03, 0x3e, 0x77, 0x90, 0x9d, 0xbd, 0x1f, 0xc5, 0x9f, 0xbd,
  0xab, 0x23, 0x97, 0x3c, 0xd4, 0x93, 0xbe, 0x3d, 0xf5, 0x3d, 0xb4, 0x3d,
  0x2e, 0x66, 0x10, 0x3e, 0xc6, 0xd7, 0x06, 0xbe, 0xb9, 0xfa, 0x22, 0xbd,
  0xb6, 0x86, 0x29, 0xbe, 0x09, 0x6e, 0x20, 0x3e, 0xe5, 0x39, 0xa4, 0xbd,
  0x67, 0xcc, 0x16, 0xbe, 0x32, 0x56, 0x0d, 0xbe, 0x66, 0xba, 0x1a, 0x3c,
  0x38, 0x84, 0x11, 0xbe, 0x73, 0x34, 0x98, 0x3d, 0x64, 0x9e, 0xa7, 0x3a,
  0x13, 0xaa, 0x0f, 0xbe, 0xa5, 0xc5, 0xbb, 0xbd, 0x90, 0xa2, 0x0a, 0xbe,
  0xd8, 0x54, 0x10, 0xba, 0x7b, 0x39, 0x82, 0x3d, 0x81, 0xff, 0xf8, 0xbd,
  0x06, 0xa2, 0xd0, 0x3d, 0xe0, 0x0c, 0xd1, 0xbd, 0x27, 0x28, 0x4b, 0x3d,
  0x4a, 0x92, 0x70, 0x3d, 0x1e, 0x46, 0xe5, 0xbd, 0x8e, 0x96, 0x1c, 0xbd,
  0x94, 0xf8, 0x1e, 0xbd, 0x77, 0x3c, 0x11, 0x3e, 0x6b, 0x78, 0xc2, 0x3c,
  0xc5, 0xfa, 0x0e, 0xbe, 0x07, 0x80, 0xc7, 0xbd, 0xc4, 0x74, 0x07, 0xbe,
  0x67, 0x3f, 0xdf, 0x3d, 0xbc, 0xf3, 0x88, 0xbd, 0x20, 0x96, 0x0e, 0x3e,
  0x3e, 0x44, 0x45, 0x3d, 0xbf, 0xc8, 0xdb, 0xbc, 0x7f, 0xb5, 0x8f, 0xbd,
  0x25, 0xa3, 0x79, 0xbd, 0xc2, 0x01, 0x72, 0x3d, 0x83, 0x00, 0x65, 0xbc,
  0x7a, 0x83, 0x37, 0x3e, 0xbd, 0xfb, 0xee, 0x3d, 0xf7, 0xb4, 0x23, 0xbe,
  0xa5, 0x8d, 0x04, 0x3e, 0x84, 0x9f, 0xb2, 0x3d, 0x4e, 0xc8, 0x98, 0xbd,
  0x97, 0x34, 0xaf, 0x3d, 0x02, 0x27, 0x77, 0xbd, 0x3c, 0xaf, 0xd6, 0x3d,
  0x9d, 0xd7, 0xb4, 0x3d, 0x52, 0x9c, 0x8e, 0x3a, 0x20, 0x6f, 0x1e, 0x3e,
  0xd1, 0xda, 0x9e, 0x3c, 0x82, 0x05, 0x96, 0xbd, 0xf5, 0x89, 0xd0, 0xbd,
  0x92, 0xac, 0x2d, 0xbe, 0x53, 0x54, 0x01, 0xbd, 0x2c, 0xd5, 0x13, 0x3e,
  0xc2, 0xc9, 0x2f, 0xbb, 0x5d, 0x7c, 0xc2, 0xbd, 0x4d, 0x71, 0x9d, 0xbd,
  0xf1, 0xff, 0xe5, 0xbd, 0xd3, 0x6c, 0x06, 0xbd, 0xb9, 0xa5, 0xba, 0xbd,
  0x81, 0x9b, 0x0a, 0x3e, 0xa8, 0xd2, 0xba, 0x3d, 0x77, 0xd6, 0x07, 0x3e,
  0x89, 0xe4, 0x08, 0x3e, 0xe4, 0x81, 0xac, 0x3d, 0xa3, 0x56, 0xd3, 0xbd,
  0x58, 0xdf, 0x87, 0xbd, 0x83, 0xae, 0xb1, 0xbd, 0x48, 0x33, 0xc9, 0x3d,
  0x2c, 0x9b, 0xf4, 0x3d, 0xe6, 0xaa, 0x9c, 0x3b, 0x28, 0x94, 0x2e, 0xb8,
  0x0e, 0xbd, 0x28, 0xbd, 0x5b, 0xff, 0x21, 0x3e, 0x84, 0x8f, 0x26, 0x3e,
  0x98, 0x3e, 0x39, 0x3c, 0xc2, 0xbb, 0x20, 0xbd, 0x5c, 0xa0, 0x0e, 0x3e,
  0x46, 0xf5, 0x22, 0x3d, 0x0e, 0x72, 0x14, 0xbe, 0xcd, 0xbd, 0x21, 0x3e,
  0x53, 0x9c, 0x61, 0xbd, 0x16, 0x1b, 0xb3, 0x3b, 0x82, 0xdf, 0xbb, 0xbd,
  0xd9, 0x7f, 0x92, 0x3d, 0x66, 0x95, 0x21, 0xbe, 0x19, 0x1f, 0xf3, 0x3d,
  0x85, 0x01, 0xb2, 0x39, 0x5b, 0xd7, 0xac, 0xbd, 0x18, 0xbd, 0xc1, 0xbd,
  0x0e, 0x3d, 0xdf, 0x3d, 0x09, 0x33, 0x1b, 0x3d, 0x98, 0xdf, 0x10, 0x3e,
  0x8c, 0x92, 0xd9, 0x3b, 0x20, 0x3a, 0x00, 0xbe, 0x29, 0xea, 0x2c, 0xbe,
  0x16, 0x8a, 0x65, 0xbd, 0xf5, 0x16, 0x21, 0x3e, 0x48, 0xa6, 0xfb, 0x3d,
  0x73, 0xbd, 0x08, 0x3e, 0x1c, 0x78, 0x7b, 0xbd, 0x9e, 0x67, 0x0a, 0x3c,
  0xd5, 0xe5, 0x3d, 0xbe, 0x07, 0xa6, 0x1a, 0xbe, 0xcb, 0x8a, 0xd0, 0xbb,
  0xa8, 0x03, 0x27, 0x3c, 0x7a, 0x7f, 0xc3, 0x3b, 0xe5, 0x79, 0x03, 0x3e,
  0x07, 0xe8, 0xaa, 0xbc, 0x6f, 0x87, 0x9c, 0xbd, 0xcc, 0x46, 0x2a, 0x3e,
  0xfe, 0xd2, 0x2c, 0xbe, 0x36, 0x71, 0x86, 0x3d, 0xcd, 0xc6, 0xe4, 0xbd,
  0xd4, 0x18, 0x25, 0xbd, 0x41, 0xc4, 0xf0, 0xbd, 0x81, 0x39, 0xce, 0xba,
  0x57, 0x0d, 0x91, 0xbd, 0x67, 0xa2, 0x04, 0x3e, 0x34, 0x29, 0xda, 0x3d,
  0x67, 0xdc, 0xbc, 0x3d, 0xe8, 0xd9, 0xb1, 0x3d, 0x14, 0xfa, 0xb3, 0xbb,
  0x15, 0x67, 0xa9, 0x3d, 0x10, 0xed, 0xfb, 0x3c, 0xb8, 0x57, 0x07, 0xbe,
  0x70, 0x86, 0xb2, 0xbd, 0x6d, 0x67, 0x08, 0x3e, 0xf7, 0x09, 0xa7, 0xbd,
  0x05, 0x6c, 0x40, 0xbe, 0x3a, 0x2c, 0x50, 0x3d, 0x3e, 0x8a, 0x03, 0xbe,
  0xd1, 0x23, 0x33, 0x3e, 0xcb, 0x40, 0x11, 0xbe, 0xdd, 0x7f, 0x2a, 0xbc,
  0x8b, 0x0b, 0x0e, 0xbe, 0xbf, 0x2d, 0xcc, 0xbd, 0x87, 0x37, 0x04, 0x3e,
  0xbb, 0xec, 0x61, 0x3c, 0xed, 0x94, 0x23, 0x3d, 0xe0, 0x75, 0x19, 0xbe,
  0x46, 0x4e, 0xe2, 0xbd, 0x61, 0xa2, 0x02, 0x3d, 0xbd, 0x3c, 0x81, 0x3d,
  0x5d, 0x18, 0xe4, 0xbd, 0x00, 0x23, 0x2d, 0x3e, 0xc3, 0x04, 0x81, 0xbd,
  0xdd, 0xd7, 0x02, 0xbe, 0x02, 0xc1, 0x86, 0x3d, 0xd9, 0x4c, 0x16, 0xbe,
  0x3d, 0xe1, 0xb8, 0xbc, 0x25, 0x9f, 0x0e, 0xbe, 0xde, 0x30, 0xc5, 0x3d,
  0x23, 0x46, 0x20, 0xbd, 0x92, 0x1a, 0x8a, 0x3c, 0xe6, 0x75, 0x1d, 0xbe,
  0xcb, 0xf7, 0xc9, 0x3c, 0x34, 0x95, 0x1d, 0x3d, 0x42, 0x0c, 0xbb, 0xbd,
  0xff, 0xeb, 0xb9, 0x3d, 0xc4, 0x98, 0xf9, 0xbd, 0xfa, 0xaa, 0x08, 0x3e,
  0x1b, 0x71, 0x4b, 0x3d, 0x6e, 0x45, 0xc6, 0xbd, 0x7e, 0xf6, 0x85, 0xbd,
  0x00, 0x6e, 0x12, 0x3e, 0x3a, 0x42, 0xfa, 0xbc, 0x54, 0x7c, 0x3f, 0x3c,
  0x58, 0x47, 0x55, 0xbd, 0x50, 0xdd, 0x44, 0xbd, 0xf3, 0xac, 0x44, 0xbd,
  0xae, 0x9d, 0x0d, 0xbc, 0xed, 0x9f, 0x21, 0x3e, 0x4a, 0x1c, 0x8d, 0xbd,
  0xad, 0x4f, 0x08, 0xbe, 0x70, 0xf2, 0xfe, 0x3d, 0xf2, 0x79, 0xd5, 0x3d,
  0xb1, 0x02, 0xa8, 0x3c, 0xac, 0x83, 0xf4, 0x3d, 0x38, 0xaf, 0x01, 0xbe,
  0x81, 0x15, 0x28, 0xbe, 0xd1, 0x06, 0x10, 0xbd, 0xdc, 0x16, 0xd6, 0xbd,
  0xf4, 0xec, 0x1f, 0x3e, 0x36, 0x3d, 0xdb, 0x3d, 0x0a, 0x34, 0x11, 0xbe,
  0xfb, 0xd7, 0x99, 0x3d, 0xe1, 0x99, 0xb5, 0x3c, 0xa5, 0x02, 0x83, 0xbd,
  0xca, 0x4a, 0xc9, 0x3d, 0x53, 0x7e, 0x3d, 0xbd, 0xc0, 0x78, 0xa9, 0xbd,
  0x05, 0x32, 0xbe, 0x3c, 0xc7, 0x37, 0xe5, 0xbc, 0xfa, 0xb0, 0x2a, 0x3d,
  0x9b, 0xb1, 0xa7, 0xbd, 0x72, 0xe8, 0xee, 0xbb, 0xf1, 0x4b, 0x72, 0xbc,
  0x93, 0xe7, 0x62, 0x3d, 0x64, 0x57, 0x07, 0x3e, 0xae, 0x27, 0x2f, 0xbe,
  0xd8, 0x5e, 0x03, 0x3d, 0x11, 0x1a, 0x3b, 0x3d, 0x81, 0x17, 0x16, 0xbe,
  0xf0, 0x50, 0x06, 0x3c, 0xfb, 0x74, 0x07, 0xbe, 0xb6, 0xcb, 0x07, 0x3e,
  0x18, 0x14, 0x94, 0x3d, 0x6e, 0xab, 0x6a, 0x3d, 0x47, 0x5a, 0x23, 0x3c,
  0xc9, 0xe3, 0xee, 0x3d, 0x68, 0xdb, 0x18, 0xbe, 0xd9, 0x33, 0x95, 0x3d,
  0xa5, 0xd9, 0xe5, 0x3c, 0x59, 0xaf, 0x11, 0x3d, 0xdf, 0xf2, 0x3a, 0xbd,
  0xe5, 0x5c, 0x0f, 0x3d, 0x93, 0xb1, 0x1f, 0xbe, 0xd6, 0x51, 0x71, 0xbd,
  0x84, 0xab, 0xee, 0x3b, 0x6f, 0xaf, 0x11, 0xbe, 0x05, 0xb2, 0x5b, 0xbc,
  0xb2, 0x67, 0x53, 0x3c, 0xe6, 0x49, 0x71, 0x3c, 0xc4, 0x50, 0x21, 0xbe,
  0x17, 0x41, 0xfa, 0x3c, 0x16, 0x50, 0xbd, 0x3d, 0xa8, 0x9e, 0x01, 0x3e,
  0xd0, 0xb4, 0x1b, 0x3e, 0x11, 0x1e, 0x04, 0xbe, 0x55, 0x97, 0x24, 0xbe,
  0x6b, 0x02, 0x7a, 0xbc, 0x61, 0x23, 0x05, 0x3e, 0xad, 0xac, 0xc6, 0xbd,
  0xc5, 0xe6, 0xd8, 0xbb, 0x7c, 0xb1, 0x05, 0xbe, 0xfe, 0x3e, 0x9e, 0xbc,
  0x79, 0x63, 0x0c, 0x3e, 0x48, 0x6d, 0xe7, 0xbd, 0xba, 0xc3, 0x23, 0x3e,
  0x31, 0xc4, 0xde, 0x3d, 0xc2, 0x23, 0xde, 0x3d, 0xfe, 0xbf, 0x0b, 0x3e,
  0xd5, 0x07, 0xee, 0xbd, 0xb1, 0x76, 0x1c, 0x3c, 0xe1, 0x11, 0x6e, 0xbc,
  0xd6, 0x43, 0x76, 0xbb, 0x07, 0x94, 0xbc, 0x3c, 0xf4, 0x8d, 0x64, 0x3d,
  0x1b, 0xcf, 0x28, 0xbe, 0x1b, 0xb9, 0x07, 0x3e, 0x0b, 0xbc, 0x99, 0xbd,
  0x4a, 0xfb, 0x41, 0x3c, 0xeb, 0xb1, 0xdf, 0x3a, 0x82, 0x9a, 0xdd, 0xbd,
  0x82, 0xd5, 0x20, 0x3d, 0x75, 0xf0, 0x5b, 0xbd, 0xa4, 0x5b, 0xed, 0x3d,
  0xfc, 0xea, 0x89, 0xbd, 0x3e, 0x8b, 0xfb, 0x3c, 0x06, 0xad, 0x94, 0x3d,
  0x90, 0xc6, 0x00, 0x3e, 0xa6, 0xe0, 0xaf, 0xbd, 0xaa, 0x29, 0x29, 0xbd,
  0x47, 0x00, 0x32, 0xbd, 0x21, 0xda, 0x53, 0xbd, 0xed, 0x7f, 0x1d, 0xbd,
  0x10, 0xea, 0x10, 0xbe, 0x25, 0xb3, 0x8f, 0x3d, 0x7e, 0x7b, 0xc7, 0xbd,
  0xbc, 0xe7, 0xdb, 0xbd, 0x61, 0x5b, 0xb4, 0xbd, 0xb3, 0x06, 0x08, 0x3e,
  0x63, 0x22, 0xac, 0x3d, 0xd4, 0x88, 0x94, 0x3c, 0x14, 0xd7, 0x96, 0xbd,
  0x71, 0xb0, 0x91, 0x3c, 0x6e, 0x02, 0xfe, 0xbd, 0xc6, 0x2e, 0x16, 0xbe,
  0xc8, 0xcc, 0x4f, 0xbc, 0xf9, 0x91, 0xc0, 0xbd, 0xdb, 0x4a, 0x85, 0xbd,
  0x7d, 0xf3, 0xed, 0x3c, 0xdf, 0x8c, 0x70, 0x3d, 0xf4, 0x1a, 0xb4, 0x3c,
  0x5f, 0x1b, 0xa7, 0x3d, 0x67, 0xcf, 0x19, 0x3e, 0x27, 0x81, 0x2e, 0xbd,
  0x6f, 0xde, 0x94, 0x3b, 0x16, 0xf7, 0x19, 0x3d, 0x98, 0x6e, 0x9f, 0xbd,
  0xdc, 0x51, 0xcb, 0x3d, 0xc8, 0x6d, 0x6c, 0xbd, 0xda, 0xef, 0xb8, 0x3c,
  0x22, 0x99, 0x06, 0xbe, 0x2f, 0xd7, 0x6f, 0xbd, 0xcc, 0x60, 0x1e, 0xbe,
  0xe6, 0x90, 0xce, 0x3d, 0x52, 0xcb, 0x1a, 0xbe, 0x3b, 0x2f, 0x9f, 0x3b,
  0xfb, 0x96, 0xde, 0x3d, 0x52, 0x97, 0x03, 0x3e, 0x92, 0x01, 0xa3, 0x3d,
  0x20, 0x57, 0x75, 0x3c, 0x99, 0x5f, 0xe1, 0xbd, 0x57, 0x68, 0x01, 0xbd,
  0x02, 0x91, 0xab, 0x3d, 0xd7, 0xb6, 0xea, 0x3c, 0xe4, 0x1a, 0x0f, 0x3d,
  0x40, 0x8a, 0x3a, 0xbe, 0xc4, 0x7c, 0x4a, 0xbd, 0x3c, 0xba, 0x32, 0xbd,
  0x66, 0x1e, 0x58, 0xbc, 0xdd, 0x77, 0xc3, 0x3d, 0x8d, 0xd8, 0xb6, 0xbc,
  0xa8, 0xde, 0x1e, 0xbe, 0xc2, 0x95, 0x49, 0xbc, 0xeb, 0x95, 0xff, 0x3d,
  0xc1, 0xb8, 0x96, 0x3c, 0xc2, 0xd3, 0x00, 0x3d, 0x7e, 0x48, 0x33, 0x3d,
  0x73, 0x51, 0x50, 0xbd, 0x8e, 0x1b, 0x84, 0xbd, 0x44, 0xc3, 0x0e, 0xbe,
  0xcd, 0x41, 0xa5, 0xbd, 0x3d, 0x1d, 0x7a, 0xbd, 0x3b, 0x2a, 0x4a, 0xbc,
  0x4b, 0x3d, 0xc4, 0x3d, 0x37, 0xc9, 0x0e, 0x3e, 0x22, 0x1b, 0xf9, 0x3c,
  0xcb, 0xb7, 0x70, 0x3d, 0x25, 0x56, 0x12, 0xbe, 0x7a, 0x3d, 0x21, 0xbb,
  0x7c, 0x08, 0x21, 0xbe, 0x69, 0xa8, 0xb2, 0xbd, 0x3e, 0xe2, 0x49, 0xbc,
  0xd0, 0x13, 0x95, 0x3d, 0xea, 0xe6, 0x7c, 0x3d, 0x69, 0xc5, 0x00, 0xbe,
  0x4f, 0x05, 0xc9, 0x3b, 0xcd, 0xdd, 0xff, 0x3d, 0xb4, 0x0a, 0xef, 0xbd,
  0xa1, 0x1f, 0xa7, 0xbd, 0xb8, 0xce, 0x05, 0x3e, 0xcf, 0xa0, 0x15, 0xbe,
  0x48, 0x2e, 0x90, 0x3d, 0x82, 0x46, 0xd0, 0x3d, 0xa6, 0xf4, 0x7f, 0xbd,
  0x76, 0x12, 0x58, 0xbd, 0xd6, 0x63, 0x0b, 0xbd, 0x4a, 0x34, 0x94, 0xbd,
  0x14, 0xd9, 0x8d, 0x3b, 0x47, 0x96, 0x81, 0x3d, 0x61, 0xd6, 0x75, 0x3d,
  0xf7, 0x4b, 0x20, 0xbe, 0x4c, 0xbe, 0xd2, 0x3c, 0xc5, 0x06, 0x00, 0x3e,
  0xf3, 0x6e, 0xfe, 0x3d, 0xfd, 0x50, 0x56, 0xbd, 0xa2, 0x29, 0x15, 0x3e,
  0xca, 0x6a, 0x08, 0x3e, 0x2c, 0xf6, 0x8b, 0x3d, 0xb0, 0xb2, 0x09, 0x3e,
  0x58, 0xcd, 0x4e, 0xbd, 0x2c, 0xe6, 0xcf, 0x3d, 0x37, 0xa3, 0xca, 0x3d,
  0x72, 0x26, 0x6d, 0xbd, 0xc9, 0x47, 0xfd, 0xbc, 0x80, 0xef, 0xc7, 0x3d,
  0x61, 0xd1, 0x3e, 0xbd, 0xcd, 0x6b, 0x59, 0x3d, 0x36, 0xdf, 0x51, 0x3d,
  0xe1, 0x85, 0xa9, 0xbd, 0x89, 0x7b, 0xfd, 0x3c, 0x4c, 0xab, 0xf6, 0x3d,
  0xf3, 0x93, 0x14, 0x3e, 0xf3, 0x3b, 0x21, 0xbd, 0x54, 0x01, 0x7c, 0xbc,
  0x97, 0xf0, 0xca, 0xbd, 0x4d, 0x40, 0x55, 0x3c, 0x4f, 0x88, 0xce, 0xbc,
  0x60, 0x16, 0x8d, 0xbd, 0xd6, 0x60, 0x4f, 0x3d, 0x6c, 0x9b, 0xa3, 0xbd,
  0xf4, 0x5d, 0x0b, 0x3e, 0x50, 0x6d, 0x1f, 0x3e, 0x5d, 0xb1, 0xca, 0xbd,
  0x2b, 0x22, 0x00, 0xbe, 0xc8, 0xd0, 0x39, 0x3e, 0x5a, 0xa2, 0xe5, 0x3c,
  0x51, 0xfb, 0x87, 0xbd, 0x06, 0x06, 0x80, 0xbd, 0xab, 0xf9, 0x87, 0x3d,
  0x6a, 0x19, 0xe2, 0xbc, 0xb0, 0xe0, 0x1e, 0xbe, 0xc0, 0x34, 0x01, 0xbe,
  0xb5, 0x06, 0x87, 0xbd, 0x80, 0xed, 0x28, 0xbc, 0x09, 0x5f, 0x31, 0xbe,
  0x44, 0x14, 0x02, 0xbe, 0x48, 0xaa, 0xa8, 0xbc, 0x54, 0x1b, 0x6b, 0x3d,
  0xb3, 0xa0, 0x91, 0x3d, 0x78, 0x26, 0x2c, 0xbd, 0x87, 0x78, 0xc0, 0xbd,
  0xdf, 0x1a, 0x76, 0x3d, 0x33, 0x35, 0x07, 0xbe, 0xf9, 0x88, 0xe7, 0xbd,
  0x34, 0x6c, 0x1f, 0x3e, 0x0a, 0x6a, 0x99, 0x3d, 0x7a, 0xaf, 0x8d, 0x3d,
  0x22, 0x7e, 0x0e, 0xbe, 0x06, 0x0c, 0x34, 0x3c, 0xb0, 0x17, 0x20, 0xbe,
  0x05, 0x3f, 0xd0, 0xbd, 0x37, 0x39, 0x07, 0x3e, 0xff, 0x42, 0xde, 0xbd,
  0x52, 0x83, 0x05, 0x3c, 0x59, 0x68, 0x02, 0xbd, 0x9f, 0x67, 0x1b, 0xbc,
  0x64, 0x8e, 0x00, 0xbe, 0x74, 0x25, 0x01, 0x3e, 0xf8, 0x00, 0x79, 0xbd,
  0xae, 0xa7, 0xa3, 0x3b, 0x1b, 0x93, 0xc8, 0xbb, 0xe2, 0x69, 0x3c, 0x3d,
  0x41, 0x60, 0xe1, 0xbb, 0xe4, 0xd8, 0x8e, 0xbd, 0x19, 0xfc, 0xa9, 0x3b,
  0x63, 0x7f, 0xad, 0x3c, 0xf3, 0x71, 0x16, 0x3e, 0xb6, 0x71, 0x34, 0x3e,
  0x29, 0xc5, 0x2c, 0x3d, 0x15, 0xd0, 0xfb, 0x3d, 0xc6, 0xbb, 0xe1, 0xbc,
  0x51, 0xf2, 0x1b, 0xbd, 0x3b, 0x7e, 0xba, 0xbd, 0x45, 0x46, 0x4b, 0xbd,
  0xd9, 0x48, 0xbe, 0x3b, 0xf6, 0xe5, 0xa9, 0xbd, 0x99, 0xa7, 0x31, 0x3d,
  0xe1, 0x76, 0x36, 0x3e, 0x66, 0x23, 0x24, 0xbe, 0xa7, 0x21, 0x24, 0xbd,
  0xc1, 0x7b, 0x70, 0xbd, 0x73, 0xd3, 0x17, 0x3e, 0x1d, 0x0f, 0x9d, 0x3d,
  0x08, 0x1b, 0x04, 0x3e, 0xb5, 0x83, 0x88, 0xbd, 0xd8, 0x4b, 0x06, 0xbe,
  0xde, 0x45, 0x06, 0x3d, 0xb3, 0x86, 0x98, 0x3d, 0x63, 0x9e, 0x74, 0x3d,
  0xcb, 0x23, 0x2c, 0x3e, 0xe5, 0xae, 0xb0, 0x3c, 0x08, 0x8b, 0x39, 0x3d,
  0x9b, 0x53, 0x9a, 0xbd, 0x8e, 0x38, 0xca, 0xbd, 0x59, 0x00, 0xd7, 0xb9,
  0x15, 0x0d, 0x2b, 0xbe, 0xa6, 0x5f, 0x8b, 0x3a, 0xb3, 0x79, 0xd9, 0x3d,
  0x2e, 0x7b, 0xd5, 0x3c, 0x9b, 0x20, 0xf0, 0x3d, 0x9e, 0x4e, 0x90, 0xbd,
  0x05, 0x52, 0x03, 0xbe, 0x6e, 0x69, 0x27, 0xbe, 0xad, 0xa4, 0x27, 0x3e,
  0x77, 0x75, 0x09, 0x3c, 0xbe, 0x12, 0x07, 0x3e, 0x03, 0xef, 0x06, 0x3d,
  0xc0, 0x55, 0xb7, 0xbd, 0x00, 0x1c, 0xe4, 0x3c, 0xb9, 0x74, 0xa2, 0xbd,
  0x6b, 0x75, 0xd1, 0xbc, 0xa1, 0x13, 0x08, 0xbe, 0xdf, 0x0f, 0xb0, 0xbd,
  0xdc, 0xe2, 0x3c, 0xbd, 0x6f, 0xbb, 0x78, 0xbd, 0x7e, 0x48, 0x2c, 0xbd,
  0xd8, 0x7c, 0x1b, 0x3e, 0x03, 0x6b, 0xda, 0x3d, 0xd8, 0xa2, 0x26, 0x3e,
  0x97, 0xea, 0x02, 0x3e, 0x53, 0x45, 0xd6, 0x3d, 0x3e, 0xae, 0x11, 0xbe,
  0x43, 0x63, 0x45, 0x3d, 0xec, 0x0d, 0x81, 0x3d, 0x72, 0xbf, 0x0b, 0x3e,
  0xa5, 0xb4, 0x57, 0x3d, 0x84, 0xdf, 0x26, 0x3d, 0x73, 0x78, 0x2a, 0xbe,
  0xe2, 0xd7, 0x0e, 0xbe, 0x9e, 0x7b, 0xf2, 0xbd, 0xa2, 0x92, 0x0e, 0x3e,
  0x3f, 0xa5, 0xfe, 0x3d, 0xc9, 0x7a, 0x74, 0x3c, 0xa7, 0xda, 0x1a, 0x3e,
  0x75, 0x50, 0xe0, 0x3d, 0x78, 0xb0, 0x14, 0x3e, 0x23, 0x3a, 0x29, 0x3e,
  0xf5, 0xa6, 0x91, 0x3c, 0xb3, 0x23, 0x30, 0xbd, 0xe6, 0xd8, 0xa7, 0xbd,
  0xce, 0xff, 0xe4, 0x3d, 0xe2, 0xa8, 0x13, 0x3d, 0x6c, 0xfb, 0xfa, 0x3d,
  0xe6, 0x8c, 0x50, 0x3d, 0x22, 0xe3, 0x73, 0xbd, 0xea, 0xf8, 0xb6, 0x3d,
  0xbc, 0x48, 0x1e, 0x3d, 0xfa, 0x6d, 0x11, 0x3e, 0x2c, 0x1b, 0x2e, 0xbe,
  0x44, 0xfb, 0x8b, 0x3d, 0xa9, 0xb9, 0x13, 0x3e, 0x11, 0x28, 0xbe, 0x3c,
  0x31, 0x1c, 0xe7, 0x3d, 0xaa, 0xf2, 0xe7, 0x3d, 0x90, 0x79, 0x25, 0xbe,
  0x5d, 0xea, 0x2b, 0xbc, 0x6e, 0x45, 0xf1, 0x3d, 0x8b, 0x76, 0xd4, 0x3d,
  0xa7, 0x99, 0x14, 0xbe, 0x26, 0xa0, 0x0d, 0x3e, 0x19, 0xc9, 0x66, 0x3c,
  0x25, 0x89, 0x1e, 0xbe, 0x21, 0x57, 0x09, 0x3e, 0x68, 0x9d, 0xad, 0xbd,
  0xd9, 0xf8, 0xe8, 0x3d, 0x05, 0xe3, 0xe7, 0xbd, 0x1d, 0x88, 0x61, 0x3d,
  0xa6, 0x5a, 0x1c, 0x3e, 0xf5, 0xf6, 0x87, 0x3d, 0xa1, 0x3b, 0x58, 0x3c,
  0x24, 0x1a, 0x82, 0x3d, 0x8f, 0xce, 0x2d, 0xbd, 0x85, 0xfe, 0x28, 0x3e,
  0xa6, 0x8d, 0xe0, 0x3d, 0x29, 0x7f, 0x26, 0xbe, 0xf3, 0x64, 0xc9, 0x3d,
  0x56, 0xbc, 0x48, 0xbd, 0x41, 0xc1, 0xfd, 0xbd, 0x66, 0xb3, 0x07, 0xbd,
  0xdf, 0xfe, 0x0f, 0xbe, 0xfb, 0xe5, 0xa1, 0xbd, 0x02, 0xe8, 0xce, 0xbd,
  0x78, 0x6d, 0x03, 0xbe, 0xf5, 0x72, 0x34, 0xbd, 0xd4, 0x21, 0xad, 0xbb,
  0x17, 0xe7, 0x9f, 0x3d, 0xf3, 0xc3, 0xb2, 0xbd, 0x2d, 0x26, 0xb8, 0xb9,
  0x54, 0x06, 0xf4, 0x3c, 0x4b, 0x01, 0x73, 0x3d, 0x4f, 0xfa, 0x03, 0xbe,
  0x29, 0xa3, 0xc5, 0x3d, 0x10, 0x5c, 0xff, 0xbd, 0xf8, 0x63, 0xc2, 0x3c,
  0x3e, 0x5e, 0x81, 0xbd, 0x7f, 0x34, 0x16, 0x3e, 0x0d, 0x3e, 0x88, 0x3d,
  0x92, 0x58, 0xc4, 0x3d, 0xf7, 0xef, 0x21, 0xbe, 0x42, 0x28, 0xee, 0xbd,
  0x7d, 0xab, 0x02, 0xbe, 0xa6, 0x30, 0x47, 0x3d, 0x87, 0x06, 0xf5, 0xbd,
  0x63, 0x37, 0xb5, 0x3d, 0xd6, 0x84, 0x20, 0x3d, 0x31, 0x62, 0x4a, 0x3c,
  0x5c, 0x08, 0xcc, 0xbd, 0x60, 0x41, 0x11, 0xbe, 0x3a, 0x0b, 0x27, 0x3e,
  0xd3, 0x77, 0x12, 0xbe, 0x50, 0xcb, 0xab, 0x3a, 0x49, 0xd7, 0xce, 0x3d,
  0x89, 0x6c, 0xb6, 0xbd, 0x75, 0xb0, 0x62, 0xbc, 0x7d, 0xcb, 0x02, 0xbe,
  0x2c, 0xa0, 0xc4, 0xbd, 0x89, 0x45, 0xc4, 0x3d, 0x82, 0x5e, 0xa8, 0x3d,
  0xc4, 0x89, 0x9e, 0xbd, 0x9c, 0x72, 0x90, 0x3d, 0x10, 0x21, 0x9b, 0xbd,
  0x0f, 0xc8, 0x17, 0xbe, 0xf8, 0xb6, 0x82, 0x3d, 0xad, 0x7c, 0x2e, 0x3d,
  0xd6, 0x2b, 0x37, 0xbd, 0x79, 0x7b, 0x9e, 0xbd, 0xeb, 0xb8, 0x2e, 0xbe,
  0x99, 0xcd, 0x8d, 0xbd, 0x1d, 0x02, 0xa9, 0x3d, 0x5c, 0xbc, 0xb7, 0x3c,
  0x15, 0x61, 0x1a, 0xbd, 0x75, 0x7f, 0x18, 0x3d, 0x2b, 0x35, 0xa9, 0x3d,
  0x91, 0x2e, 0xb3, 0xbc, 0x77, 0xb6, 0xa9, 0xbb, 0x4c, 0xde, 0xc3, 0x3d,
  0x74, 0x29, 0x1f, 0x3e, 0xa6, 0x87, 0x53, 0xbd, 0x33, 0xf3, 0xad, 0xbb,
  0x31, 0x6c, 0x97, 0x3c, 0x11, 0x87, 0x8e, 0x3d, 0x4c, 0x4b, 0x10, 0x3e,
  0x29, 0xee, 0x53, 0x3d, 0x5b, 0xb9, 0xe8, 0x3d, 0xa1, 0xc3, 0xd6, 0x3d,
  0x75, 0x21, 0x0f, 0x3e, 0x19, 0xaa, 0xe3, 0x3d, 0xdd, 0x83, 0x6d, 0xbd,
  0x56, 0x33, 0x0c, 0x3e, 0xbd, 0x09, 0xc0, 0x3d, 0x55, 0x17, 0x24, 0xbe,
  0xe2, 0xc4, 0x29, 0x3b, 0xd2, 0x3f, 0xa3, 0x3d, 0xd8, 0xec, 0x11, 0x3e,
  0xef, 0x37, 0x00, 0x3e, 0x3e, 0x74, 0x2f, 0xbc, 0xeb, 0x4e, 0x0d, 0xbd,
  0x44, 0xb4, 0x85, 0xbd, 0xe5, 0xa8, 0x29, 0x3e, 0x7f, 0x24, 0x84, 0x3d,
  0x07, 0xd1, 0x8d, 0x3c, 0x4a, 0xab, 0x38, 0xbc, 0xd3, 0x07, 0x9b, 0xbd,
  0x7f, 0x48, 0x63, 0xbd, 0x00, 0xb6, 0xdf, 0x3d, 0x4e, 0xc9, 0x27, 0x3e,
  0x99, 0x65, 0x48, 0xbd, 0x13, 0xf2, 0xec, 0xbd, 0x73, 0x98, 0x07, 0xbe,
  0xae, 0xfb, 0x53, 0x3d, 0xbe, 0x32, 0x62, 0x3d, 0xbc, 0xe0, 0x32, 0x3e,
  0x0e, 0x58, 0xcb, 0xbd, 0xa9, 0x3a, 0xe7, 0x3d, 0x1d, 0x99, 0x1b, 0x3e,
  0xb3, 0xbc, 0xe5, 0x3d, 0x39, 0xea, 0xa1, 0xbd, 0x27, 0x14, 0x97, 0xbd,
  0xc2, 0x4c, 0x8b, 0x3c, 0xb7, 0x3d, 0x9f, 0x3d, 0x33, 0x0d, 0xd4, 0x3d,
  0xb5, 0x9e, 0xfb, 0x3d, 0x00, 0xec, 0x38, 0xbd, 0x9b, 0x49, 0x9a, 0x3c,
  0x3c, 0x62, 0x28, 0x3e, 0xb5, 0xbd, 0x86, 0x3d, 0x3b, 0xc8, 0x2d, 0xbe,
  0xe7, 0x28, 0x0f, 0xbd, 0x24, 0x1c, 0x1a, 0x3e, 0x87, 0xa6, 0x2b, 0x3d,
  0x57, 0xed, 0x77, 0xbd, 0x42, 0xdc, 0xd0, 0x3d, 0x19, 0xe5, 0x15, 0xbe,
  0x45, 0xc6, 0x54, 0xbd, 0x78, 0xec, 0x0c, 0x3d, 0x56, 0xf3, 0xb0, 0xbd,
  0xf6, 0x1b, 0x18, 0xbe, 0x71, 0x9d, 0x55, 0xbd, 0x7b, 0x0d, 0xa3, 0xbd,
  0x96, 0xb6, 0xf1, 0xbd, 0xa5, 0x85, 0x2e, 0x3d, 0xda, 0x23, 0x1b, 0x3e,
  0xfc, 0x26, 0x14, 0x3e, 0xd0, 0x05, 0x10, 0x3e, 0x00, 0x7c, 0x18, 0xbd,
  0x07, 0xbe, 0x1c, 0x3e, 0xea, 0x52, 0xe1, 0x3d, 0x41, 0x2a, 0xb5, 0xbd,
  0x98, 0x11, 0x75, 0xbd, 0xa3, 0x0c, 0x30, 0x3e, 0x95, 0x92, 0x30, 0xbe,
  0xad, 0xe6, 0xe6, 0xbd, 0x6e, 0xe3, 0xe3, 0xbd, 0x5c, 0x08, 0x50, 0xbd,
  0xa2, 0x5e, 0x09, 0xbe, 0xb1, 0x9e, 0x06, 0xbe, 0x05, 0x9d, 0x10, 0xbe,
  0x1a, 0x10, 0x94, 0x3d, 0xe5, 0xd8, 0x9d, 0x3d, 0x98, 0x2e, 0x05, 0x3e,
  0x48, 0x3b, 0xb8, 0xbd, 0x18, 0xf0, 0x10, 0x3e, 0xde, 0xfb, 0xf4, 0x3c,
  0x24, 0x4a, 0x92, 0x3d, 0xcf, 0x6c, 0x4b, 0x3d, 0xb3, 0xe8, 0xb7, 0xbc,
  0xe2, 0xd3, 0xb0, 0x3d, 0x89, 0x31, 0xa7, 0x3c, 0xa4, 0x32, 0x1f, 0x3e,
  0x36, 0xa7, 0x15, 0xbe, 0x7e, 0xc8, 0x7a, 0x3c, 0x08, 0x86, 0x41, 0x3d,
  0xaf, 0x36, 0xdd, 0x3c, 0xad, 0x7f, 0xb9, 0xbc, 0x10, 0xeb, 0x37, 0x3e,
  0xcd, 0x42, 0xb1, 0xbc, 0x6b, 0x5c, 0xb1, 0x3d, 0xd4, 0xa9, 0xa9, 0xbd,
  0xf2, 0xa2, 0xbe, 0xbd, 0x9a, 0xbc, 0xa0, 0x3d, 0xf9, 0x18, 0x17, 0xbe,
  0x5e, 0x43, 0x1e, 0x3e, 0x8f, 0x0e, 0x32, 0xbd, 0x0c, 0xae, 0x11, 0x3d,
  0x2f, 0x5a, 0x8c, 0x3d, 0x27, 0xf0, 0xd5, 0x3d, 0x82, 0x5f, 0x12, 0xbe,
  0x69, 0xed, 0x02, 0x3e, 0x60, 0x42, 0x03, 0x3e, 0x9c, 0x4d, 0x9d, 0x3c,
  0xe0, 0xcb, 0x0f, 0xbe, 0x99, 0x8f, 0x25, 0x3d, 0x93, 0xb3, 0xca, 0x3d,
  0x23, 0xf7, 0x83, 0xbc, 0x1c, 0x4c, 0xdf, 0x3d, 0x7b, 0xcf, 0x0a, 0xbe,
  0xfe, 0x75, 0x87, 0x3d, 0xcc, 0xd5, 0x85, 0xb9, 0x7e, 0x2b, 0xa8, 0xbd,
  0xad, 0x4f, 0x9c, 0x3d, 0xfa, 0x4d, 0x22, 0x3d, 0x0c, 0xff, 0x57, 0x3b,
  0x4b, 0xfe, 0x27, 0x3d, 0x6d, 0x14, 0x40, 0x3e, 0x37, 0x6a, 0xf8, 0x3d,
  0x4a, 0xa2, 0xff, 0x3d, 0xdc, 0xee, 0xbe, 0x3d, 0x46, 0x9b, 0x00, 0x3e,
  0xc0, 0x25, 0x22, 0xbe, 0x97, 0xdc, 0xbe, 0xbd, 0x55, 0x28, 0x61, 0xbd,
  0x58, 0xbe, 0xf2, 0x3d, 0x40, 0x5b, 0x9e, 0x3d, 0x71, 0x48, 0xb3, 0x3d,
  0x0c, 0xcc, 0x0b, 0xbe, 0x24, 0x2c, 0xb1, 0x3c, 0x96, 0x2e, 0xb3, 0xbd,
  0xff, 0xf5, 0x48, 0xbd, 0x88, 0x35, 0x91, 0xbd, 0x5c, 0x90, 0xe8, 0x3d,
  0x5e, 0x7a, 0x19, 0x3e, 0x7c, 0xfd, 0xe1, 0xbd, 0x80, 0x81, 0x17, 0xbe,
  0xb8, 0xce, 0x06, 0xbe, 0x27, 0x24, 0xbd, 0x3d, 0x78, 0x2d, 0x01, 0x3e,
  0xb5, 0xe8, 0x9e, 0xbd, 0x2b, 0x91, 0x84, 0xbd, 0x1d, 0x12, 0x3f, 0xbc,
  0xc5, 0x3b, 0x09, 0xbe, 0x54, 0x85, 0x11, 0x3d, 0xfb, 0x63, 0x87, 0xbc,
  0xd0, 0xfc, 0x93, 0xbd, 0x58, 0x66, 0x35, 0xbd, 0xba, 0xc3, 0x2a, 0xbe,
  0x19, 0xab, 0x1b, 0x3e, 0xed, 0xb7, 0xab, 0xbb, 0xc1, 0x2b, 0x12, 0x3e,
  0x49, 0x80, 0x1e, 0xbd, 0x3f, 0x48, 0xa7, 0x3d, 0x9d, 0x40, 0x36, 0x3b,
  0x3f, 0x25, 0x9e, 0x3d, 0xea, 0x5b, 0x80, 0xbd, 0x8f, 0xae, 0xe9, 0x3d,
  0x8b, 0x9c, 0xc5, 0xbd, 0x0e, 0x3c, 0x9e, 0x3d, 0x35, 0xbc, 0x3d, 0xbe,
  0x7c, 0xcd, 0xa3, 0xbd, 0xdf, 0x77, 0x9e, 0xbd, 0xd2, 0x22, 0xff, 0xbc,
  0xd0, 0xfc, 0xe8, 0xbd, 0xb8, 0x4c, 0x5b, 0x3d, 0x56, 0xcb, 0x0d, 0xbe,
  0xe1, 0x6b, 0xee, 0xbd, 0x2c, 0x66, 0x27, 0xbe, 0xc3, 0x16, 0x06, 0x3e,
  0xfb, 0x8f, 0x93, 0xbc, 0x62, 0x78, 0xe1, 0x3d, 0x8a, 0xb8, 0x42, 0xbd,
  0x5f, 0x56, 0x1b, 0xbe, 0x01, 0xea, 0x93, 0xbc, 0x2c, 0x0f, 0x2b, 0x3d,
  0x6a, 0x00, 0x14, 0xbe, 0x80, 0xe7, 0xcf, 0xbd, 0x30, 0x01, 0x23, 0x3e,
  0xb5, 0x71, 0x11, 0xbe, 0x2c, 0x37, 0x20, 0x3d, 0x94, 0xcd, 0x74, 0x3c,
  0xcd, 0xf9, 0x28, 0xbd, 0xbf, 0x02, 0x82, 0xbd, 0xd7, 0x5a, 0x85, 0xbb,
  0x87, 0xda, 0x95, 0xbd, 0xaf, 0xad, 0x95, 0xbd, 0x4b, 0x42, 0x3a, 0xbd,
  0x27, 0x84, 0x26, 0x3e, 0x75, 0x3f, 0xdc, 0xbd, 0xfa, 0xe0, 0x83, 0x3b,
  0x9a, 0xcc, 0x30, 0xbe, 0xa6, 0x3a, 0x07, 0xbe, 0x26, 0xae, 0x89, 0xbd,
  0x89, 0xb4, 0x9d, 0xbc, 0xbd, 0xa5, 0x1c, 0x3e, 0x1e, 0xf2, 0x0e, 0xbe,
  0x9e, 0x31, 0xf8, 0xbc, 0x01, 0x9c, 0xb8, 0xbd, 0xcd, 0xf3, 0x0d, 0x3e,
  0x70, 0x02, 0x95, 0xbd, 0x7c, 0x40, 0xb0, 0xbd, 0x3e, 0x9a, 0xba, 0xbd,
  0xe5, 0x18, 0x11, 0xbc, 0xdf, 0xbc, 0x00, 0xbe, 0xd3, 0x6a, 0x1d, 0x3e,
  0xe7, 0x91, 0x44, 0x3d, 0xea, 0xaf, 0x80, 0x3b, 0x05, 0x62, 0x48, 0x3c,
  0xe5, 0x61, 0xca, 0x3d, 0xf1, 0x94, 0x75, 0xbd, 0x04, 0x49, 0x10, 0xbe,
  0xe2, 0x45, 0x0e, 0xbd, 0x94, 0x06, 0x8f, 0x3c, 0xac, 0x21, 0xf2, 0xbd,
  0x2b, 0x5f, 0xaa, 0x3d, 0x19, 0x90, 0xfe, 0x3d, 0xd3, 0x76, 0x07, 0x3d,
  0x64, 0x2f, 0xa3, 0x3d, 0xd1, 0x2a, 0x0e, 0xbe, 0x30, 0x86, 0xa7, 0x3d,
  0x7c, 0xc7, 0xca, 0x3d, 0x11, 0xce, 0x95, 0x3d, 0x0e, 0x49, 0xda, 0x3c,
  0x94, 0xf5, 0xf8, 0x3d, 0x7d, 0x6e, 0xe6, 0x3d, 0xf0, 0x0c, 0x05, 0xbe,
  0x07, 0xe5, 0x32, 0x3e, 0x96, 0x57, 0x06, 0xbe, 0xcc, 0x39, 0xf3, 0xbd,
  0x86, 0xb3, 0x17, 0x3d, 0x78, 0x48, 0xf5, 0xbc, 0x70, 0xe4, 0x05, 0x3d,
  0x8f, 0x8a, 0xc7, 0xbd, 0x1f, 0x96, 0x26, 0xbb, 0x96, 0xfe, 0x0e, 0x3e,
  0x81, 0xf2, 0xae, 0xbd, 0xa9, 0x82, 0x03, 0xbe, 0x7b, 0x8c, 0x39, 0xbd,
  0x22, 0x9f, 0x09, 0x3d, 0x42, 0xd2, 0xff, 0xbd, 0x25, 0xef, 0x35, 0x3e,
  0x0b, 0xeb, 0x04, 0x3e, 0x14, 0x58, 0x24, 0xbd, 0x9e, 0x34, 0x08, 0xbd,
  0x80, 0x17, 0x0f, 0xbd, 0xd1, 0xe9, 0x4c, 0x3d, 0x1f, 0x29, 0x5b, 0xbd,
  0xb8, 0x32, 0x06, 0x3d, 0xcd, 0xb2, 0x52, 0x3d, 0x65, 0x40, 0x32, 0xbc,
  0x80, 0xef, 0x15, 0x3e, 0xfe, 0xab, 0x93, 0x3d, 0xfb, 0x12, 0x40, 0x3b,
  0xf2, 0x37, 0x54, 0xbd, 0xd2, 0x6b, 0xb0, 0xbd, 0x4f, 0x61, 0xb8, 0x3d,
  0x7d, 0xb2, 0x19, 0xbe, 0x45, 0xd4, 0x29, 0x3e, 0x40, 0x4f, 0x80, 0xbd,
  0xd4, 0x41, 0x11, 0x3e, 0x07, 0xe7, 0xa2, 0x3d, 0xbb, 0x07, 0xf2, 0x3d,
  0x3a, 0xa7, 0xa3, 0xbd, 0x4c, 0x47, 0xeb, 0x3d, 0xff, 0x40, 0x48, 0x3d,
  0x31, 0x45, 0x05, 0xbd, 0xe9, 0x7d, 0x7c, 0x3d, 0x3b, 0x44, 0x4f, 0xbd,
  0x91, 0x19, 0xaf, 0x3d, 0xce, 0xbb, 0xf2, 0x3b, 0xe7, 0x0b, 0xab, 0xba,
  0x02, 0x7b, 0xac, 0x3d, 0x02, 0xa9, 0xe3, 0xbd, 0xcb, 0xa9, 0xeb, 0x3d,
  0xc4, 0x24, 0xaf, 0xbc, 0x9f, 0xd3, 0x9c, 0x3d, 0x96, 0xd6, 0xc8, 0xbd,
  0xb2, 0xd6, 0x41, 0xbd, 0x78, 0x47, 0x32, 0xbd, 0x05, 0xf2, 0xb3, 0xbd,
  0x09, 0x67, 0x2d, 0x3d, 0xfe, 0xdb, 0xe4, 0x3d, 0xa6, 0x68, 0xa3, 0xbd,
  0x2f, 0x95, 0xab, 0xbd, 0x1a, 0xd1, 0x26, 0x3e, 0xeb, 0x78, 0xd4, 0xbd,
  0xb8, 0x5b, 0xeb, 0x3d, 0xd7, 0x55, 0x26, 0xbe, 0xb2, 0xbc, 0x41, 0xbe,
  0x68, 0x9a, 0xad, 0x3d, 0x54, 0xea, 0xe4, 0xbd, 0x3f, 0x10, 0xd7, 0xbd,
  0xe9, 0xa8, 0x21, 0x3e, 0xd0, 0xc5, 0x24, 0xbe, 0xa0, 0x53, 0xeb, 0x3c,
  0xa7, 0x34, 0xa7, 0x3d, 0x5e, 0x26, 0x2d, 0x3d, 0xed, 0x44, 0x9f, 0xbd,
  0x2b, 0x17, 0x0a, 0xbd, 0x47, 0x4e, 0xa7, 0x3d, 0x43, 0xd9, 0xb7, 0x3d,
  0xe3, 0x0c, 0xf2, 0x3d, 0x20, 0x02, 0x17, 0x3e, 0x2c, 0xd4, 0xb9, 0xbd,
  0x47, 0xb4, 0xd9, 0xbd, 0x5d, 0xee, 0xbe, 0x3d, 0x98, 0x66, 0xf9, 0xbc,
  0x7e, 0xef, 0xb1, 0xbd, 0xb3, 0xb7, 0xcb, 0x3d, 0x88, 0xf0, 0x34, 0x3e,
  0x4a, 0x41, 0x51, 0x3d, 0xe3, 0x6b, 0x71, 0xbd, 0xeb, 0xf5, 0x2c, 0xbd,
  0xd9, 0xe8, 0xad, 0x3b, 0x6c, 0x7a, 0xfe, 0x3c, 0xc7, 0xe4, 0xdf, 0xbc,
  0xca, 0xb0, 0x47, 0xbc, 0xc6, 0x7c, 0x10, 0xba, 0x42, 0x98, 0x86, 0xbd,
  0x77, 0x05, 0xaf, 0xbd, 0xa9, 0x4d, 0x13, 0x3d, 0xd4, 0x05, 0x3b, 0x3d,
  0xb9, 0x81, 0x84, 0xbd, 0x95, 0xe6, 0x5c, 0x3d, 0x23, 0x07, 0xa9, 0xbd,
  0x8d, 0xbd, 0xcc, 0xbd, 0xf0, 0x1d, 0x1a, 0x3e, 0xd4, 0x72, 0x04, 0xbc,
  0x9d, 0x43, 0xa1, 0xbd, 0xd1, 0xeb, 0x04, 0x3e, 0x4d, 0xac, 0xe1, 0xbd,
  0x18, 0x49, 0x1a, 0xbe, 0xb5, 0xcc, 0x9e, 0x3d, 0x29, 0x14, 0xcd, 0xbd,
  0xf1, 0xf1, 0xa7, 0x3d, 0x79, 0x84, 0xd4, 0xbd, 0xa9, 0xb8, 0x20, 0xbd,
  0x8e, 0x77, 0x78, 0xbd, 0x89, 0xbc, 0x16, 0x3e, 0xae, 0x93, 0x1f, 0xbe,
  0xb3, 0x65, 0x3c, 0x3d, 0x59, 0x1a, 0xff, 0xbd, 0xa8, 0x55, 0x03, 0x3d,
  0x9d, 0x58, 0x6a, 0x3d, 0xf6, 0x20, 0x71, 0xbc, 0x82, 0xb2, 0x83, 0xbd,
  0xb0, 0xaf, 0xbd, 0x3d, 0x25, 0x8b, 0x1d, 0x3e, 0x0d, 0x69, 0x84, 0x3d,
  0xd5, 0x7e, 0x0e, 0xbd, 0xa6, 0x8e, 0x18, 0x3e, 0x8d, 0xfb, 0xa6, 0x3c,
  0x26, 0x35, 0xb3, 0xbd, 0x4c, 0xee, 0xee, 0xbd, 0xf3, 0x0c, 0x42, 0xbd,
  0xad, 0xf1, 0x9d, 0xbb, 0xf7, 0x2f, 0xeb, 0x3c, 0x78, 0x3c, 0x2c, 0xbd,
  0x32, 0x83, 0x5c, 0x3d, 0xbc, 0x4d, 0x28, 0x3c, 0x89, 0xf5, 0x39, 0x3e,
  0x00, 0x70, 0xde, 0x3d, 0xba, 0xc7, 0xdc, 0x3d, 0x04, 0x6a, 0x80, 0x3d,
  0xfb, 0x2f, 0x77, 0x3b, 0x8d, 0xa1, 0xa7, 0xbc, 0x8c, 0xb0, 0xdb, 0xbd,
  0x47, 0xae, 0x99, 0xbd, 0xe1, 0x01, 0xa1, 0x3d, 0xde, 0x67, 0xbe, 0x3d,
  0x0d, 0xc6, 0x1b, 0x3e, 0x08, 0x22, 0x3a, 0xbc, 0x55, 0x15, 0xb2, 0x3d,
  0xa5, 0xa3, 0xa9, 0xbd, 0x42, 0xea, 0x20, 0xbd, 0x1a, 0xe1, 0x48, 0x3c,
  0x82, 0x69, 0x2b, 0x3e, 0x17, 0xd2, 0x53, 0x3d, 0xed, 0xb6, 0xe9, 0xbc,
  0x3f, 0x75, 0xc2, 0xbd, 0x39, 0xcd, 0xb6, 0x3d, 0x2a, 0x8c, 0xc8, 0xbd,
  0xbd, 0x83, 0x35, 0x3e, 0x99, 0xca, 0xb7, 0xbd, 0x52, 0x40, 0xf7, 0x3d,
  0x58, 0x88, 0x0d, 0x3e, 0x35, 0x40, 0x61, 0x3d, 0xcb, 0xae, 0xb5, 0xbc,
  0xc3, 0x56, 0x02, 0xbe, 0x89, 0x03, 0x98, 0x3d, 0xa6, 0x0a, 0xb4, 0x3d,
  0xbd, 0x94, 0x9a, 0x3d, 0x3b, 0x47, 0xed, 0x3b, 0x0b, 0x04, 0x27, 0x3e,
  0x3d, 0x6d, 0x2a, 0xbe, 0xc5, 0x1d, 0xf2, 0xbc, 0xfb, 0x00, 0x83, 0xbd,
  0xc5, 0xfe, 0x4c, 0x3d, 0xb9, 0x21, 0xb9, 0xbc, 0xfd, 0x88, 0xe4, 0x3b,
  0x91, 0xbc, 0xb0, 0xbd, 0x22, 0xe9, 0xc1, 0x3d, 0x4e, 0x88, 0x76, 0xbd,
  0x88, 0xb4, 0x12, 0xbe, 0xe6, 0x57, 0x2c, 0x3e, 0x0a, 0x95, 0xb0, 0xbc,
  0xf2, 0x03, 0x8a, 0xbc, 0x26, 0x0b, 0x88, 0xbd, 0x10, 0xd6, 0x9e, 0x3d,
  0x89, 0x2a, 0xc4, 0x3d, 0x8a, 0x21, 0x8a, 0xbb, 0x67, 0x21, 0xc3, 0x3d,
  0x52, 0x7f, 0xf0, 0xbd, 0xe3, 0xc3, 0xaf, 0x3c, 0x82, 0x38, 0xdc, 0xbd,
  0x05, 0x9f, 0x2f, 0x3d, 0x9f, 0xcf, 0x95, 0x3d, 0x4b, 0x62, 0x98, 0x3d,
  0xe4, 0x07, 0x15, 0xbe, 0xba, 0x7f, 0x32, 0xbe, 0xc1, 0x3e, 0x17, 0xbd,
  0xda, 0xd3, 0x04, 0xbe, 0xd1, 0xa4, 0x88, 0xbd, 0x94, 0x4f, 0x7e, 0x3d,
  0xd8, 0xf2, 0xac, 0xbd, 0xcc, 0x18, 0xbc, 0x3d, 0xb3, 0xc1, 0x6a, 0x3d,
  0x84, 0x55, 0x8c, 0x3d, 0x87, 0x2b, 0xaf, 0xbd, 0x6e, 0x0c, 0x17, 0x3e,
